<unk>	0
<s>	0
</s>	0
<pad>	0
an	-0
▁t	-1
in	-2
er	-3
on	-4
he	-5
or	-6
es	-7
at	-8
en	-9
▁the	-10
al	-11
▁o	-12
ar	-13
ion	-14
is	-15
and	-16
▁s	-17
ed	-18
▁C	-19
▁p	-20
▁of	-21
it	-22
▁c	-23
▁in	-24
ic	-25
▁f	-26
▁a	-27
ro	-28
re	-29
▁and	-30
ing	-31
ad	-32
ent	-33
▁"	-34
▁b	-35
▁w	-36
▁to	-37
ct	-38
▁m	-39
ou	-40
il	-41
▁A	-42
as	-43
00	-44
."	-45
om	-46
ation	-47
▁S	-48
▁2	-49
et	-50
▁d	-51
▁T	-52
anad	-53
el	-54
▁Canad	-55
ort	-56
st	-57
▁P	-58
le	-59
▁200	-60
▁M	-61
▁pro	-62
ment	-63
▁e	-64
▁h	-65
▁I	-66
▁F	-67
▁re	-68
▁th	-69
▁for	-70
od	-71
ri	-72
ce	-73
port	-74
ur	-75
▁l	-76
ver	-77
du	-78
▁Canada	-79
▁n	-80
▁(	-81
ol	-82
th	-83
▁R	-84
im	-85
▁is	-86
ter	-87
▁E	-88
ec	-89
ood	-90
ul	-91
ve	-92
ers	-93
▁D	-94
ra	-95
▁g	-96
un	-97
ut	-98
▁B	-99
▁N	-100
ig	-101
▁In	-102
▁con	-103
ir	-104
▁1	-105
ly	-106
est	-107
ess	-108
-0	-109
▁G	-110
▁on	-111
are	-112
▁be	-113
ian	-114
▁or	-115
ot	-116
▁ex	-117
id	-118
ch	-119
ect	-120
▁H	-121
▁[	-122
ill	-123
us	-124
▁]	-125
duct	-126
ies	-127
ag	-128
ith	-129
um	-130
▁O	-131
▁are	-132
ow	-133
ab	-134
▁r	-135
op	-136
oun	-137
ark	-138
▁The	-139
▁com	-140
ate	-141
▁with	-142
if	-143
▁as	-144
ist	-145
▁Canadian	-146
▁that	-147
▁st	-148
▁product	-149
▁su	-150
arket	-151
▁L	-152
ity	-153
ay	-154
ant	-155
pp	-156
ain	-157
▁W	-158
▁by	-159
qu	-160
▁an	-161
ac	-162
▁U	-163
ew	-164
rom	-165
ial	-166
se	-167
am	-168
ry	-169
oc	-170
▁al	-171
-1	-172
▁im	-173
iv	-174
▁wh	-175
ure	-176
ice	-177
em	-178
▁2006	-179
ear	-180
ff	-181
ive	-182
ore	-183
our	-184
ult	-185
▁from	-186
▁inc	-187
▁v	-188
art	-189
ational	-190
▁St	-191
over	-192
ia	-193
__	-194
▁food	-195
ish	-196
ere	-197
ld	-198
ations	-199
ev	-200
rad	-201
▁Ag	-202
tern	-203
▁sh	-204
▁-	-205
▁comp	-206
▁it	-207
ail	-208
igh	-209
omm	-210
▁at	-211
▁market	-212
os	-213
ric	-214
▁2007	-215
▁J	-216
▁products	-217
ud	-218
▁y	-219
ount	-220
▁•	-221
age	-222
ue	-223
end	-224
iz	-225
-2	-226
ust	-227
ap	-228
illion	-229
ast	-230
overn	-231
ep	-232
ports	-233
cc	-234
ther	-235
res	-236
gh	-237
ww	-238
ions	-239
ard	-240
erv	-241
orm	-242
ak	-243
▁Pro	-244
▁cons	-245
ip	-246
act	-247
enc	-248
The	-249
▁ag	-250
eg	-251
:"	-252
up	-253
ence	-254
ber	-255
rade	-256
overnment	-257
▁res	-258
ans	-259
ell	-260
▁has	-261
ef	-262
▁not	-263
ex	-264
ost	-265
""	-266
▁Comm	-267
▁ha	-268
▁3	-269
ated	-270
erm	-271
form	-272
▁V	-273
und	-274
ble	-275
reas	-276
▁$	-277
og	-278
▁gro	-279
ine	-280
▁cont	-281
sion	-282
▁have	-283
▁Ch	-284
ub	-285
able	-286
▁Con	-287
ru	-288
all	-289
ich	-290
ments	-291
ific	-292
ign	-293
evel	-294
ire	-295
▁exp	-296
lic	-297
ary	-298
▁ch	-299
evelop	-300
ould	-301
ities	-302
eral	-303
ge	-304
dust	-305
▁ad	-306
▁this	-307
▁sp	-308
ance	-309
ition	-310
▁2007-0	-311
▁import	-312
gan	-313
▁he	-314
▁2006-0	-315
▁per	-316
▁app	-317
▁reg	-318
▁4	-319
▁prov	-320
rib	-321
▁le	-322
▁Intern	-323
▁se	-324
▁was	-325
ricult	-326
▁5	-327
▁million	-328
▁will	-329
ical	-330
In	-331
pt	-332
▁me	-333
ight	-334
formation	-335
▁Ex	-336
▁Min	-337
ome	-338
ates	-339
▁their	-340
ax	-341
pl	-342
▁increas	-343
onom	-344
ister	-345
ural	-346
ission	-347
▁Un	-348
▁New	-349
ces	-350
ors	-351
dustry	-352
▁K	-353
ork	-354
▁19	-355
▁us	-356
af	-357
____	-358
▁An	-359
ide	-360
ency	-361
so	-362
lud	-363
ong	-364
▁Tel	-365
▁Th	-366
ech	-367
▁which	-368
any	-369
▁""	-370
fer	-371
aw	-372
▁part	-373
ree	-374
▁Food	-375
ert	-376
▁6	-377
▁consum	-378
▁Government	-379
▁dis	-380
▁year	-381
oy	-382
▁also	-383
▁its	-384
▁acc	-385
ca	-386
air	-387
cess	-388
▁comm	-389
..	-390
rop	-391
ous	-392
▁more	-393
▁int	-394
▁export	-395
alth	-396
ection	-397
out	-398
▁other	-399
tt	-400
▁pre	-401
ely	-402
▁grow	-403
▁all	-404
▁7	-405
rim	-406
▁count	-407
▁en	-408
ari	-409
▁Minister	-410
▁includ	-411
conom	-412
▁Trade	-413
ack	-414
▁"•	-415
evelopment	-416
▁pl	-417
ublic	-418
ices	-419
▁can	-420
▁Commission	-421
arg	-422
ord	-423
▁k	-424
ual	-425
▁sal	-426
▁organ	-427
▁9	-428
▁over	-429
ite	-430
ents	-431
▁Act	-432
iver	-433
▁Sp	-434
orth	-435
ribut	-436
▁ab	-437
ile	-438
▁US	-439
ts	-440
▁j	-441
earch	-442
ited	-443
eb	-444
oll	-445
ons	-446
▁op	-447
▁qu	-448
▁information	-449
ram	-450
▁Re	-451
ss	-452
ater	-453
av	-454
▁cl	-455
oura	-456
▁Q	-457
ov	-458
▁En	-459
▁National	-460
▁International	-461
ase	-462
iness	-463
ries	-464
arm	-465
ory	-466
ang	-467
▁8	-468
▁rec	-469
▁process	-470
000	-471
▁Res	-472
usiness	-473
ugh	-474
ace	-475
olog	-476
ee	-477
▁industry	-478
vest	-479
ative	-480
▁Hon	-481
ass	-482
ob	-483
ey	-484
ok	-485
▁2008	-486
echn	-487
▁than	-488
irect	-489
▁tr	-490
ervice	-491
ector	-492
mer	-493
riculture	-494
hen	-495
▁www	-496
anc	-497
ean	-498
com	-499
▁requ	-500
les	-501
▁2005	-502
▁un	-503
ach	-504
▁were	-505
▁Agency	-506
eneral	-507
ourable	-508
▁und	-509
land	-510
exic	-511
▁been	-512
eed	-513
ject	-514
▁high	-515
ib	-516
ake	-517
),	-518
▁Honourable	-519
we	-520
old	-521
▁out	-522
▁trade	-523
ens	-524
▁Fax	-525
▁such	-526
riv	-527
▁fish	-528
ttp	-529
rough	-530
//	-531
://	-532
▁sub	-533
▁may	-534
ound	-535
rit	-536
▁add	-537
▁Mexic	-538
▁ret	-539
orld	-540
▁2008-0	-541
▁new	-542
red	-543
▁val	-544
▁http	-545
▁inter	-546
ose	-547
▁2004	-548
▁spec	-549
gram	-550
resent	-551
ics	-552
▁He	-553
li	-554
ages	-555
tal	-556
▁off	-557
▁199	-558
oin	-559
duc	-560
ever	-561
▁Im	-562
▁&	-563
ond	-564
▁these	-565
▁dec	-566
▁man	-567
gc	-568
▁exports	-569
ional	-570
ress	-571
ility	-572
▁Development	-573
▁Off	-574
hed	-575
anies	-576
▁imp	-577
▁under	-578
ise	-579
ern	-580
one	-581
▁act	-582
▁de	-583
▁Market	-584
▁sup	-585
,000	-586
▁dist	-587
echnolog	-588
its	-589
▁Reg	-590
ract	-591
▁they	-592
▁but	-593
▁any	-594
ervices	-595
-3	-596
www	-597
▁supp	-598
opul	-599
unities	-600
▁Al	-601
ame	-602
ina	-603
conomic	-604
▁Cont	-605
ety	-606
--	-607
▁Fr	-608
▁should	-609
▁2006-1	-610
ines	-611
▁ind	-612
▁Ann	-613
▁rel	-614
▁disc	-615
sp	-616
food	-617
als	-618
▁2003	-619
▁Ind	-620
▁resp	-621
▁co	-622
▁companies	-623
hip	-624
der	-625
▁one	-626
13	-627
▁Bo	-628
ives	-629
iew	-630
▁Agri	-631
▁Cent	-632
ision	-633
olic	-634
▁imports	-635
▁bo	-636
▁sector	-637
ks	-638
ating	-639
▁fir	-640
ph	-641
ues	-642
▁Com	-643
▁est	-644
▁bet	-645
▁there	-646
ards	-647
yst	-648
bec	-649
▁into	-650
▁North	-651
▁foods	-652
ants	-653
▁This	-654
airs	-655
ind	-656
eth	-657
mail	-658
0%	-659
▁organic	-660
oci	-661
▁popul	-662
urop	-663
▁sales	-664
Canad	-665
▁do	-666
ivers	-667
ime	-668
ricultural	-669
▁most	-670
▁up	-671
▁growth	-672
Food	-673
▁ob	-674
▁government	-675
uc	-676
▁ev	-677
________	-678
outh	-679
▁United	-680
▁num	-681
Th	-682
▁Y	-683
▁str	-684
epart	-685
▁billion	-686
▁Aff	-687
ption	-688
▁about	-689
▁years	-690
▁provid	-691
▁bec	-692
ounc	-693
ery	-694
▁em	-695
par	-696
▁ass	-697
▁Agriculture	-698
ederal	-699
echnology	-700
ality	-701
▁Health	-702
aj	-703
uring	-704
inal	-705
io	-706
▁larg	-707
▁ver	-708
▁0	-709
els	-710
▁am	-711
▁total	-712
▁pur	-713
▁–	-714
▁Affairs	-715
▁2002	-716
▁would	-717
ings	-718
ected	-719
urr	-720
ollow	-721
ures	-722
ween	-723
▁loc	-724
▁work	-725
afood	-726
▁country	-727
ased	-728
ized	-729
▁dem	-730
▁through	-731
erson	-732
▁well	-733
▁On	-734
▁ro	-735
50	-736
▁production	-737
rain	-738
meric	-739
▁ri	-740
ploy	-741
own	-742
rin	-743
stit	-744
ystem	-745
)."	-746
▁Europ	-747
▁rep	-748
▁Public	-749
stitut	-750
ied	-751
cial	-752
▁good	-753
itt	-754
ateg	-755
ently	-756
▁Americ	-757
▁ent	-758
ick	-759
▁Ad	-760
▁distribut	-761
ci	-762
▁business	-763
oint	-764
ER	-765
ruct	-766
ible	-767
▁retail	-768
▁who	-769
▁Ass	-770
ade	-771
▁li	-772
icial	-773
▁Product	-774
ays	-775
ration	-776
ms	-777
▁follow	-778
▁eff	-779
▁iss	-780
1.	-781
ources	-782
epartment	-783
▁countries	-784
wo	-785
▁Ar	-786
fact	-787
oreign	-788
ajor	-789
▁Man	-790
ange	-791
▁pe	-792
▁General	-793
▁Internet	-794
▁value	-795
▁lab	-796
ont	-797
▁Que	-798
co	-799
▁partic	-800
ough	-801
portunities	-802
▁regul	-803
▁Cons	-804
▁Is	-805
ild	-806
uman	-807
▁States	-808
▁produc	-809
▁only	-810
use	-811
iron	-812
10	-813
resh	-814
20	-815
ization	-816
▁between	-817
ON	-818
▁ac	-819
▁appro	-820
▁Foreign	-821
▁cap	-822
owever	-823
ccess	-824
AD	-825
ustice	-826
▁Or	-827
cent	-828
rand	-829
▁ar	-830
▁meat	-831
zen	-832
▁we	-833
tl	-834
abl	-835
per	-836
ets	-837
efence	-838
▁Right	-839
arge	-840
▁Mexico	-841
▁Fish	-842
▁number	-843
rozen	-844
lect	-845
.:	-846
wn	-847
ufact	-848
▁Sup	-849
▁trans	-850
▁Quebec	-851
▁App	-852
ternational	-853
viron	-854
▁Sh	-855
tari	-856
▁world	-857
▁law	-858
▁main	-859
▁des	-860
▁develop	-861
▁interest	-862
▁righ	-863
TI	-864
▁contin	-865
▁term	-866
eries	-867
ident	-868
vironment	-869
▁health	-870
▁use	-871
▁increase	-872
▁must	-873
▁pos	-874
ince	-875
apan	-876
orp	-877
▁cert	-878
▁consumers	-879
▁Co	-880
olum	-881
AN	-882
ases	-883
▁some	-884
▁For	-885
▁time	-886
▁leg	-887
▁sm	-888
ism	-889
▁att	-890
itional	-891
iot	-892
ize	-893
eng	-894
pos	-895
▁Defence	-896
afety	-897
▁need	-898
▁largest	-899
ock	-900
▁Inc	-901
Canada	-902
▁include	-903
ustom	-904
▁invest	-905
ouncil	-906
▁(6	-907
▁10	-908
▁person	-909
.2	-910
vent	-911
▁Research	-912
▁Tr	-913
ie	-914
▁Direct	-915
....	-916
▁demand	-917
▁research	-918
ider	-919
▁agri	-920
▁Japan	-921
▁Department	-922
▁major	-923
tain	-924
ower	-925
▁compl	-926
ral	-927
▁av	-928
▁system	-929
▁As	-930
▁curr	-931
▁you	-932
ank	-933
.5	-934
uss	-935
▁two	-936
▁2001	-937
▁program	-938
▁EU	-939
aking	-940
▁imported	-941
▁Council	-942
▁Germ	-943
verage	-944
▁20	-945
▁sec	-946
▁ra	-947
▁fl	-948
▁vari	-949
▁Report	-950
AR	-951
unity	-952
yp	-953
orn	-954
▁employ	-955
▁sign	-956
ES	-957
aim	-958
▁whe	-959
▁including	-960
▁compet	-961
▁agricultural	-962
▁markets	-963
▁increasing	-964
▁Comp	-965
▁cent	-966
atural	-967
▁bu	-968
▁rem	-969
etail	-970
▁Board	-971
▁require	-972
ove	-973
▁access	-974
▁stor	-975
▁Information	-976
.3	-977
ily	-978
unic	-979
urn	-980
▁increased	-981
▁rest	-982
▁Industry	-983
ified	-984
▁population	-985
ished	-986
▁Pl	-987
atory	-988
AF	-989
orpor	-990
▁provide	-991
▁cost	-992
▁Service	-993
antic	-994
▁so	-995
▁inf	-996
▁made	-997
▁Her	-998
▁dif	-999
ermarket	-1000
au	-1001
ification	-1002
ix	-1003
▁used	-1004
▁report	-1005
ipp	-1006
ven	-1007
ll	-1008
ability	-1009
▁manufact	-1010
cept	-1011
ath	-1012
▁cre	-1013
▁gre	-1014
▁fresh	-1015
▁2007-1	-1016
▁where	-1017
ext	-1018
ember	-1019
▁adv	-1020
▁account	-1021
▁dom	-1022
19	-1023
vel	-1024
ium	-1025
ward	-1026
▁Economic	-1027
rime	-1028
▁international	-1029
▁public	-1030
▁direct	-1031
isl	-1032
ination	-1033
▁both	-1034
rice	-1035
aur	-1036
▁seafood	-1037
▁Atl	-1038
▁conc	-1039
▁ann	-1040
▁first	-1041
▁ph	-1042
OR	-1043
▁Sec	-1044
▁prom	-1045
▁priv	-1046
▁quality	-1047
▁many	-1048
▁China	-1049
lement	-1050
▁establ	-1051
▁large	-1052
ential	-1053
30	-1054
▁12	-1055
▁services	-1056
▁South	-1057
acific	-1058
▁oil	-1059
che	-1060
ately	-1061
▁result	-1062
▁form	-1063
ict	-1064
ause	-1065
▁pres	-1066
▁small	-1067
.1	-1068
▁prepar	-1069
amp	-1070
▁consumer	-1071
ars	-1072
▁bro	-1073
ys	-1074
▁goods	-1075
istics	-1076
▁15	-1077
ource	-1078
▁ext	-1079
13)	-1080
▁development	-1081
ke	-1082
▁Em	-1083
▁(2	-1084
▁exporters	-1085
▁Trans	-1086
view	-1087
ains	-1088
ann	-1089
▁consider	-1090
mber	-1091
read	-1092
olicy	-1093
iti	-1094
▁Se	-1095
ined	-1096
arly	-1097
eri	-1098
ople	-1099
▁avail	-1100
▁stand	-1101
▁Justice	-1102
.4	-1103
▁Export	-1104
▁important	-1105
▁Op	-1106
▁el	-1107
▁claim	-1108
▁European	-1109
pr	-1110
▁represent	-1111
▁Contact	-1112
angu	-1113
get	-1114
fore	-1115
▁requir	-1116
▁oper	-1117
ty	-1118
▁2000	-1119
▁Announ	-1120
▁18	-1121
▁order	-1122
▁show	-1123
▁your	-1124
▁frozen	-1125
ouse	-1126
▁Pacific	-1127
▁suppli	-1128
enef	-1129
EC	-1130
idu	-1131
▁local	-1132
itions	-1133
▁mon	-1134
▁Organ	-1135
▁special	-1136
▁Af	-1137
bia	-1138
isc	-1139
aterial	-1140
▁company	-1141
▁Products	-1142
For	-1143
acy	-1144
▁$1	-1145
▁our	-1146
▁lead	-1147
▁could	-1148
▁region	-1149
▁while	-1150
▁(613)	-1151
▁no	-1152
-8	-1153
▁pot	-1154
▁Federal	-1155
This	-1156
▁Ph	-1157
▁equ	-1158
▁service	-1159
▁pack	-1160
ug	-1161
bers	-1162
▁It	-1163
▁Mar	-1164
▁support	-1165
▁Stat	-1166
▁brand	-1167
▁Rev	-1168
▁Br	-1169
▁17	-1170
▁group	-1171
▁Wh	-1172
ench	-1173
ocu	-1174
▁Gro	-1175
▁min	-1176
▁farm	-1177
unding	-1178
▁if	-1179
ences	-1180
mon	-1181
▁past	-1182
▁expected	-1183
AL	-1184
▁Centre	-1185
▁Gu	-1186
ued	-1187
▁when	-1188
▁ve	-1189
▁see	-1190
ructure	-1191
▁Business	-1192
▁pric	-1193
▁following	-1194
raph	-1195
ically	-1196
hib	-1197
▁within	-1198
ats	-1199
1-2	-1200
▁De	-1201
▁had	-1202
▁Program	-1203
2-2	-1204
ercial	-1205
estic	-1206
ively	-1207
ountry	-1208
spection	-1209
▁Services	-1210
ett	-1211
As	-1212
However	-1213
▁Pre	-1214
2-1	-1215
ook	-1216
ociation	-1217
----	-1218
▁fru	-1219
▁fact	-1220
▁growing	-1221
▁price	-1222
▁mod	-1223
▁make	-1224
▁material	-1225
urther	-1226
ull	-1227
tario	-1228
.6	-1229
ient	-1230
ins	-1231
▁available	-1232
▁share	-1233
ier	-1234
▁Part	-1235
ends	-1236
▁Invest	-1237
-4	-1238
ribun	-1239
▁consumption	-1240
-7	-1241
▁sug	-1242
▁econom	-1243
▁Law	-1244
str	-1245
▁Fin	-1246
▁Atlantic	-1247
▁fac	-1248
eign	-1249
▁Par	-1250
elling	-1251
uation	-1252
line	-1253
une	-1254
▁percent	-1255
ft	-1256
itive	-1257
rael	-1258
▁kn	-1259
▁che	-1260
▁*	-1261
▁ref	-1262
IC	-1263
▁Announces	-1264
ividu	-1265
ai	-1266
▁"""	-1267
1)	-1268
iotechnology	-1269
▁red	-1270
xim	-1271
▁vis	-1272
▁being	-1273
▁foreign	-1274
ilk	-1275
▁Eng	-1276
▁Safety	-1277
▁trad	-1278
▁Spain	-1279
▁Prov	-1280
ificant	-1281
▁stores	-1282
IN	-1283
▁custom	-1284
▁inv	-1285
ribunal	-1286
ters	-1287
▁Web	-1288
▁ens	-1289
.8	-1290
▁Qu	-1291
cell	-1292
.,	-1293
▁list	-1294
itor	-1295
▁them	-1296
▁Har	-1297
▁his	-1298
iversity	-1299
▁economic	-1300
▁purch	-1301
▁sl	-1302
ients	-1303
▁very	-1304
▁promot	-1305
3-2	-1306
▁Ontario	-1307
agr	-1308
▁people	-1309
way	-1310
▁Brit	-1311
▁rights	-1312
▁activ	-1313
▁Me	-1314
.7	-1315
▁Sal	-1316
▁effect	-1317
ners	-1318
rast	-1319
ful	-1320
iss	-1321
hone	-1322
org	-1323
▁Mexican	-1324
▁med	-1325
ved	-1326
▁general	-1327
▁Environment	-1328
▁concern	-1329
).	-1330
▁car	-1331
2-0	-1332
ference	-1333
ables	-1334
▁Fl	-1335
ended	-1336
▁conf	-1337
▁significant	-1338
▁State	-1339
▁regulations	-1340
▁supermarket	-1341
▁Tribunal	-1342
airy	-1343
ason	-1344
ution	-1345
ht	-1346
▁Su	-1347
▁Cl	-1348
▁strong	-1349
pro	-1350
11	-1351
▁rece	-1352
▁Germany	-1353
▁col	-1354
▁French	-1355
▁own	-1356
It	-1357
▁those	-1358
erg	-1359
▁each	-1360
▁average	-1361
uth	-1362
TION	-1363
▁prot	-1364
-6	-1365
EN	-1366
▁offer	-1367
estern	-1368
▁Institut	-1369
▁Fisheries	-1370
.9	-1371
▁individu	-1372
ify	-1373
ury	-1374
▁ed	-1375
▁opportunities	-1376
lish	-1377
eter	-1378
ising	-1379
ories	-1380
▁specific	-1381
DA	-1382
ton	-1383
ried	-1384
▁buy	-1385
▁American	-1386
fter	-1387
▁meet	-1388
▁based	-1389
ilities	-1390
▁Rel	-1391
▁del	-1392
▁same	-1393
▁capit	-1394
4-2	-1395
▁$2	-1396
▁Lab	-1397
▁success	-1398
lp	-1399
ether	-1400
▁Aust	-1401
▁Israel	-1402
▁annual	-1403
1-1	-1404
-5	-1405
▁Office	-1406
▁prices	-1407
ten	-1408
▁14	-1409
htm	-1410
▁Import	-1411
▁Association	-1412
ecial	-1413
ese	-1414
▁(4	-1415
▁agree	-1416
▁veget	-1417
led	-1418
▁help	-1419
▁British	-1420
agement	-1421
unications	-1422
ivil	-1423
uthor	-1424
▁Not	-1425
▁cond	-1426
▁Pol	-1427
atives	-1428
12	-1429
AFC	-1430
▁non	-1431
▁shall	-1432
▁due	-1433
▁rate	-1434
▁contact	-1435
▁Ab	-1436
▁Sc	-1437
ask	-1438
iod	-1439
80	-1440
________________	-1441
ene	-1442
▁applic	-1443
▁particul	-1444
▁2006-10	-1445
orporation	-1446
iet	-1447
▁human	-1448
▁issues	-1449
-9	-1450
▁sur	-1451
ran	-1452
epend	-1453
▁def	-1454
▁Inf	-1455
ximately	-1456
▁bel	-1457
▁Govern	-1458
▁land	-1459
▁benef	-1460
▁respons	-1461
ees	-1462
▁16	-1463
TC	-1464
4-1	-1465
though	-1466
▁ship	-1467
▁World	-1468
▁three	-1469
▁during	-1470
▁long	-1471
▁less	-1472
iven	-1473
esp	-1474
▁contain	-1475
rastructure	-1476
▁25	-1477
▁area	-1478
▁present	-1479
los	-1480
▁We	-1481
▁processing	-1482
▁requirements	-1483
ared	-1484
▁particip	-1485
▁IN	-1486
gred	-1487
▁Human	-1488
▁Country	-1489
▁Z	-1490
▁13	-1491
ering	-1492
▁because	-1493
ecomm	-1494
eration	-1495
▁respect	-1496
west	-1497
▁gen	-1498
▁period	-1499
4)	-1500
ious	-1501
val	-1502
ording	-1503
▁Prime	-1504
▁required	-1505
min	-1506
ird	-1507
▁differ	-1508
▁Commissioner	-1509
▁aff	-1510
▁det	-1511
embers	-1512
▁Oce	-1513
▁low	-1514
RO	-1515
ross	-1516
▁May	-1517
rug	-1518
ourt	-1519
urity	-1520
iqu	-1521
raz	-1522
▁domestic	-1523
ato	-1524
▁section	-1525
DP	-1526
70	-1527
uel	-1528
▁federal	-1529
▁project	-1530
ale	-1531
▁supply	-1532
ata	-1533
ced	-1534
▁(5	-1535
adio	-1536
▁ident	-1537
▁whether	-1538
▁bas	-1539
▁before	-1540
▁sim	-1541
▁areas	-1542
istration	-1543
▁inst	-1544
ephone	-1545
uture	-1546
▁impro	-1547
▁Foods	-1548
▁private	-1549
TA	-1550
ogn	-1551
▁now	-1552
▁Secre	-1553
▁state	-1554
▁economy	-1555
16	-1556
ists	-1557
▁does	-1558
▁India	-1559
▁allow	-1560
▁Governor	-1561
▁manufactur	-1562
irst	-1563
▁gu	-1564
▁Top	-1565
ted	-1566
▁stud	-1567
onn	-1568
▁lim	-1569
ceed	-1570
akes	-1571
▁Priv	-1572
ror	-1573
lease	-1574
ally	-1575
▁common	-1576
bass	-1577
▁Over	-1578
inn	-1579
razil	-1580
1,	-1581
▁Consum	-1582
ead	-1583
▁sc	-1584
▁Colum	-1585
▁ensure	-1586
▁University	-1587
ck	-1588
▁Opportunities	-1589
iff	-1590
▁after	-1591
▁second	-1592
▁potential	-1593
rol	-1594
uts	-1595
▁fin	-1596
▁Step	-1597
▁:	-1598
imal	-1599
Al	-1600
alf	-1601
▁she	-1602
anish	-1603
3-1	-1604
oles	-1605
oyal	-1606
▁distribution	-1607
▁22	-1608
▁typ	-1609
▁Be	-1610
▁experi	-1611
▁recomm	-1612
illed	-1613
▁With	-1614
▁found	-1615
uch	-1616
pert	-1617
ature	-1618
ograph	-1619
▁Columbia	-1620
▁Transport	-1621
90	-1622
▁like	-1623
▁Leg	-1624
anding	-1625
▁30	-1626
▁Statistics	-1627
▁AAFC	-1628
▁provides	-1629
df	-1630
bert	-1631
hold	-1632
itors	-1633
▁estim	-1634
ocial	-1635
▁America	-1636
uff	-1637
ecess	-1638
▁docu	-1639
1-0	-1640
▁producers	-1641
15	-1642
▁strateg	-1643
.0	-1644
▁/	-1645
lands	-1646
▁since	-1647
▁legisl	-1648
▁continue	-1649
▁key	-1650
▁tra	-1651
ness	-1652
hes	-1653
▁page	-1654
▁23	-1655
▁Regul	-1656
▁There	-1657
▁discrim	-1658
▁Rep	-1659
▁case	-1660
▁prim	-1661
ocus	-1662
istry	-1663
▁restaur	-1664
aid	-1665
eek	-1666
▁terms	-1667
oh	-1668
icer	-1669
omen	-1670
▁top	-1671
▁agriculture	-1672
3-0	-1673
ait	-1674
40	-1675
5-0	-1676
awa	-1677
serv	-1678
▁GDP	-1679
▁June	-1680
▁indic	-1681
▁No	-1682
duce	-1683
▁All	-1684
▁ingred	-1685
ecommunications	-1686
eld	-1687
aged	-1688
▁site	-1689
▁find	-1690
for	-1691
ink	-1692
other	-1693
isions	-1694
▁investment	-1695
▁approximately	-1696
ma	-1697
▁Int	-1698
▁cle	-1699
izations	-1700
lob	-1701
▁Col	-1702
ancial	-1703
▁Brazil	-1704
▁Inspection	-1705
TS	-1706
oad	-1707
incial	-1708
▁author	-1709
ring	-1710
▁again	-1711
▁Indian	-1712
▁Funding	-1713
wards	-1714
▁water	-1715
▁policy	-1716
▁Mal	-1717
ropri	-1718
▁milk	-1719
▁poss	-1720
▁further	-1721
▁programs	-1722
ah	-1723
▁standards	-1724
reat	-1725
▁national	-1726
▁take	-1727
▁2006-09	-1728
▁decreas	-1729
Wh	-1730
sw	-1731
▁official	-1732
▁pay	-1733
bassy	-1734
▁Afric	-1735
▁necess	-1736
▁Telephone	-1737
evision	-1738
US	-1739
ience	-1740
rup	-1741
▁go	-1742
▁invol	-1743
▁sever	-1744
▁prepared	-1745
........	-1746
▁Project	-1747
-30	-1748
▁Car	-1749
▁Day	-1750
▁version	-1751
aging	-1752
ris	-1753
rior	-1754
ariff	-1755
▁(3	-1756
ling	-1757
very	-1758
▁port	-1759
olution	-1760
On	-1761
ttawa	-1762
iginal	-1763
▁First	-1764
▁relations	-1765
▁set	-1766
▁Europe	-1767
▁Jan	-1768
▁Str	-1769
ittee	-1770
eal	-1771
elf	-1772
▁Med	-1773
▁marketing	-1774
▁materials	-1775
▁Resources	-1776
unct	-1777
▁Radio	-1778
▁fruit	-1779
▁|	-1780
▁Work	-1781
▁meas	-1782
▁subs	-1783
▁2005,	-1784
▁costs	-1785
▁worth	-1786
▁Western	-1787
5-1	-1788
att	-1789
▁bl	-1790
▁Mich	-1791
72	-1792
▁biotechnology	-1793
▁what	-1794
ample	-1795
▁prof	-1796
▁English	-1797
▁Per	-1798
cember	-1799
▁complain	-1800
▁provided	-1801
▁open	-1802
▁Official	-1803
▁Jean	-1804
▁last	-1805
▁Royal	-1806
ving	-1807
▁Cap	-1808
▁ter	-1809
order	-1810
▁stat	-1811
nam	-1812
stronom	-1813
RI	-1814
rial	-1815
ster	-1816
▁among	-1817
▁Canadians	-1818
▁members	-1819
▁Corporation	-1820
6-2	-1821
ley	-1822
med	-1823
▁various	-1824
5)	-1825
▁Sci	-1826
▁Excell	-1827
▁address	-1828
▁assist	-1829
▁currently	-1830
ergy	-1831
▁Bank	-1832
▁beef	-1833
uary	-1834
▁Add	-1835
▁processed	-1836
▁Tra	-1837
▁Director	-1838
nov	-1839
itage	-1840
▁outl	-1841
▁Inter	-1842
▁right	-1843
anguages	-1844
IA	-1845
▁Mont	-1846
▁different	-1847
▁suppliers	-1848
most	-1849
▁Asia	-1850
ending	-1851
▁month	-1852
▁current	-1853
ulture	-1854
▁place	-1855
▁Oceans	-1856
▁December	-1857
▁Port	-1858
ves	-1859
▁mat	-1860
▁needs	-1861
▁still	-1862
▁salmon	-1863
▁Embassy	-1864
▁Ministry	-1865
▁expl	-1866
▁look	-1867
elevision	-1868
▁24	-1869
▁pract	-1870
5-2	-1871
anges	-1872
▁addition	-1873
▁Stephen	-1874
▁establish	-1875
▁Tax	-1876
ators	-1877
ually	-1878
▁recogn	-1879
▁Agricultural	-1880
ash	-1881
ived	-1882
▁Micha	-1883
olume	-1884
▁cases	-1885
▁label	-1886
▁amount	-1887
▁Heritage	-1888
▁vegetables	-1889
ours	-1890
▁March	-1891
Pro	-1892
▁Million	-1893
lia	-1894
aun	-1895
▁ITC	-1896
▁focus	-1897
ept	-1898
▁natural	-1899
ife	-1900
▁$3	-1901
liament	-1902
▁et	-1903
▁sit	-1904
etails	-1905
▁Harper	-1906
▁1,	-1907
vention	-1908
▁Ottawa	-1909
▁Appoint	-1910
CAD	-1911
perty	-1912
OM	-1913
-200	-1914
▁popular	-1915
wan	-1916
▁five	-1917
14	-1918
mig	-1919
▁From	-1920
▁Sector	-1921
▁remain	-1922
▁(8	-1923
ilit	-1924
▁nut	-1925
▁Russ	-1926
Canadian	-1927
ana	-1928
arn	-1929
▁know	-1930
▁dairy	-1931
▁implement	-1932
▁environment	-1933
▁established	-1934
AS	-1935
AT	-1936
▁Oct	-1937
▁end	-1938
▁Natural	-1939
ather	-1940
▁High	-1941
▁sugar	-1942
IS	-1943
lle	-1944
▁sect	-1945
▁conditions	-1946
enn	-1947
itob	-1948
utical	-1949
ope	-1950
rid	-1951
▁become	-1952
▁January	-1953
▁subject	-1954
▁categ	-1955
ibility	-1956
▁consult	-1957
▁Air	-1958
▁added	-1959
▁legal	-1960
lt	-1961
▁100	-1962
▁Sen	-1963
▁Pres	-1964
▁ITCan	-1965
▁supermarkets	-1966
▁perm	-1967
▁however	-1968
te	-1969
pril	-1970
ingap	-1971
▁certain	-1972
▁Reven	-1973
▁higher	-1974
▁ingredients	-1975
lu	-1976
ober	-1977
▁even	-1978
▁determ	-1979
ingapore	-1980
television	-1981
60	-1982
ron	-1983
▁brok	-1984
▁hand	-1985
▁Parliament	-1986
▁name	-1987
ention	-1988
▁income	-1989
Ch	-1990
ED	-1991
ules	-1992
);	-1993
▁several	-1994
▁activities	-1995
Ex	-1996
ems	-1997
gov	-1998
▁ju	-1999
work	-2000
▁how	-2001
losure	-2002
▁Exports	-2003
▁lev	-2004
▁exist	-2005
▁level	-2006
td	-2007
▁light	-2008
▁conven	-2009
▁sk	-2010
rict	-2011
itoba	-2012
itted	-2013
▁Dist	-2014
▁firms	-2015
9,	-2016
200	-2017
ides	-2018
▁Rec	-2019
tariat	-2020
▁wheat	-2021
▁around	-2022
ones	-2023
▁near	-2024
▁resources	-2025
esc	-2026
▁These	-2027
▁Union	-2028
▁developed	-2029
oth	-2030
▁Ed	-2031
▁fam	-2032
AC	-2033
ner	-2034
less	-2035
▁Prof	-2036
▁range	-2037
verages	-2038
▁Secretariat	-2039
cl	-2040
eria	-2041
▁Elect	-2042
▁complet	-2043
▁2007-10	-2044
ool	-2045
With	-2046
ator	-2047
▁four	-2048
▁Spanish	-2049
▁retailers	-2050
▁cann	-2051
▁real	-2052
lobal	-2053
▁commercial	-2054
ebru	-2055
ebruary	-2056
▁contribut	-2057
▁King	-2058
▁Phil	-2059
2)	-2060
umm	-2061
▁feed	-2062
▁wine	-2063
▁organizations	-2064
An	-2065
▁obtain	-2066
▁CAD	-2067
▁ins	-2068
arks	-2069
ield	-2070
imes	-2071
▁Exp	-2072
▁web	-2073
▁home	-2074
▁neg	-2075
▁France	-2076
▁design	-2077
▁estimated	-2078
site	-2079
▁Mon	-2080
▁hold	-2081
ropriate	-2082
uly	-2083
itiz	-2084
▁free	-2085
▁Chile	-2086
▁every	-2087
▁April	-2088
▁proble	-2089
5%	-2090
▁capita	-2091
▁Reports	-2092
▁necessary	-2093
▁beverages	-2094
▁te	-2095
▁occ	-2096
▁effort	-2097
▁few	-2098
▁power	-2099
▁repl	-2100
▁Police	-2101
▁against	-2102
77	-2103
me	-2104
▁50	-2105
iving	-2106
▁recommend	-2107
88	-2108
▁bar	-2109
anguage	-2110
▁example	-2111
▁technology	-2112
ethod	-2113
▁Mount	-2114
▁using	-2115
▁October	-2116
▁Northwest	-2117
ffee	-2118
ached	-2119
,""	-2120
▁Sw	-2121
▁par	-2122
▁2004,	-2123
▁indust	-2124
▁Manitoba	-2125
▁Singapore	-2126
▁recent	-2127
▁Excellency	-2128
▁AN	-2129
▁way	-2130
▁Seafood	-2131
▁February	-2132
▁discrimination	-2133
ode	-2134
reen	-2135
▁Bar	-2136
▁nes	-2137
▁full	-2138
▁partners	-2139
25	-2140
ised	-2141
▁read	-2142
ovember	-2143
▁Legisl	-2144
▁Supports	-2145
▁bi	-2146
▁har	-2147
▁Scot	-2148
▁just	-2149
▁Rights	-2150
▁improve	-2151
▁Infrastructure	-2152
ief	-2153
isk	-2154
▁enc	-2155
▁individual	-2156
▁tel	-2157
icult	-2158
▁Agree	-2159
▁enter	-2160
▁then	-2161
▁Committee	-2162
▁net	-2163
▁object	-2164
--------	-2165
asp	-2166
hips	-2167
▁seed	-2168
▁often	-2169
uty	-2170
▁groc	-2171
▁almost	-2172
▁Austral	-2173
▁produced	-2174
az	-2175
ances	-2176
olicies	-2177
DF	-2178
ocol	-2179
6-1	-2180
arily	-2181
raining	-2182
▁member	-2183
▁levels	-2184
4-0	-2185
▁Am	-2186
▁educ	-2187
ounced	-2188
▁control	-2189
alys	-2190
ecut	-2191
olid	-2192
▁able	-2193
▁Other	-2194
▁cover	-2195
▁seg	-2196
▁Regions	-2197
▁GM	-2198
."""	-2199
ises	-2200
ëlle	-2201
▁Del	-2202
There	-2203
▁down	-2204
▁initi	-2205
mark	-2206
oult	-2207
▁reach	-2208
▁Michaëlle	-2209
▁"(	-2210
▁data	-2211
▁pork	-2212
▁prin	-2213
▁Officer	-2214
▁produce	-2215
▁institut	-2216
▁(9	-2217
▁11	-2218
▁bre	-2219
▁view	-2220
▁ground	-2221
▁Adv	-2222
▁much	-2223
75	-2224
rig	-2225
erved	-2226
ipment	-2227
▁perform	-2228
▁regional	-2229
▁without	-2230
istan	-2231
▁desc	-2232
ietnam	-2233
▁legislation	-2234
If	-2235
aff	-2236
gest	-2237
▁tons	-2238
▁November	-2239
aced	-2240
arget	-2241
▁cook	-2242
▁prep	-2243
▁issue	-2244
▁groups	-2245
▁Statement	-2246
to	-2247
▁Cal	-2248
▁Val	-2249
▁future	-2250
6-0	-2251
▁Bl	-2252
▁fe	-2253
▁Pan	-2254
oultry	-2255
▁appear	-2256
▁Community	-2257
▁ON	-2258
▁sci	-2259
▁size	-2260
▁2006-08	-2261
▁Nations	-2262
alysis	-2263
▁Philipp	-2264
▁register	-2265
8,	-2266
ola	-2267
▁deal	-2268
obster	-2269
original	-2270
gent	-2271
inks	-2272
▁Albert	-2273
alled	-2274
▁Treas	-2275
▁Access	-2276
merg	-2277
▁Email	-2278
44	-2279
oph	-2280
▁grain	-2281
66	-2282
UR	-2283
rant	-2284
▁Ltd	-2285
▁test	-2286
coh	-2287
pose	-2288
stant	-2289
▁regard	-2290
▁Privacy	-2291
etherlands	-2292
85	-2293
▁Pe	-2294
ania	-2295
export	-2296
▁Policy	-2297
▁advant	-2298
7,	-2299
ouver	-2300
▁Treasury	-2301
OD	-2302
sh	-2303
""."	-2304
▁Initi	-2305
▁Compet	-2306
▁2007-08	-2307
▁Regulations	-2308
enez	-2309
▁great	-2310
itizens	-2311
▁traditional	-2312
▁increasingly	-2313
otal	-2314
▁her	-2315
▁Support	-2316
▁conduct	-2317
▁transport	-2318
inf	-2319
▁Nov	-2320
▁held	-2321
riminal	-2322
cip	-2323
eci	-2324
erc	-2325
rab	-2326
dfait	-2327
ils	-2328
lex	-2329
utes	-2330
ready	-2331
▁Table	-2332
▁safety	-2333
St	-2334
▁pol	-2335
▁third	-2336
▁volume	-2337
▁Revenue	-2338
migration	-2339
operation	-2340
▁Directive	-2341
▁convenience	-2342
▁distributors	-2343
maeci	-2344
▁crop	-2345
▁sold	-2346
▁civil	-2347
▁given	-2348
▁tariff	-2349
enezuel	-2350
▁propos	-2351
▁Up	-2352
fish	-2353
▁Ital	-2354
▁Court	-2355
▁Annual	-2356
▁review	-2357
▁Netherlands	-2358
▁appropriate	-2359
ohn	-2360
opp	-2361
▁Rele	-2362
ancouver	-2363
22	-2364
▁funct	-2365
▁Finance	-2366
▁related	-2367
▁importer	-2368
ole	-2369
ops	-2370
▁60	-2371
▁met	-2372
▁Imports	-2373
▁Northern	-2374
▁Mr	-2375
▁sn	-2376
▁fre	-2377
▁leading	-2378
til	-2379
▁Av	-2380
unsw	-2381
iance	-2382
unswick	-2383
▁limited	-2384
▁Farm	-2385
▁drin	-2386
▁basis	-2387
▁Africa	-2388
▁making	-2389
day	-2390
▁Acc	-2391
attle	-2392
▁Details	-2393
▁consist	-2394
▁property	-2395
man	-2396
▁26	-2397
▁Prot	-2398
▁play	-2399
▁intro	-2400
▁Island	-2401
▁community	-2402
oor	-2403
ren	-2404
html	-2405
weet	-2406
▁includes	-2407
aring	-2408
▁July	-2409
idd	-2410
▁Whe	-2411
vious	-2412
▁plan	-2413
▁visit	-2414
gg	-2415
▁hot	-2416
inese	-2417
▁Spe	-2418
▁Sept	-2419
▁rele	-2420
▁Vietnam	-2421
▁management	-2422
reg	-2423
ting	-2424
▁Stud	-2425
▁exhib	-2426
▁animal	-2427
Although	-2428
18	-2429
▁$4	-2430
▁tonn	-2431
iation	-2432
▁German	-2433
▁Aboriginal	-2434
ilm	-2435
armon	-2436
▁lower	-2437
▁Brunswick	-2438
35	-2439
gro	-2440
ique	-2441
▁lic	-2442
ining	-2443
▁items	-2444
▁trend	-2445
▁security	-2446
▁$5	-2447
igin	-2448
reet	-2449
ptions	-2450
▁dried	-2451
▁2007-07	-2452
...	-2453
vant	-2454
▁might	-2455
▁prior	-2456
ecially	-2457
▁states	-2458
▁policies	-2459
ING	-2460
erve	-2461
▁impact	-2462
▁agreement	-2463
▁◦	-2464
oung	-2465
▁Group	-2466
▁Source	-2467
▁Vancouver	-2468
"",	-2469
ubl	-2470
▁1.	-2471
▁(200	-2472
▁exped	-2473
▁reason	-2474
portunity	-2475
▁Agreement	-2476
sc	-2477
ingle	-2478
▁best	-2479
▁Central	-2480
▁Chinese	-2481
▁Mounted	-2482
▁exporter	-2483
especially	-2484
▁Institute	-2485
the	-2486
aken	-2487
▁diff	-2488
▁house	-2489
▁shipp	-2490
▁better	-2491
▁Technology	-2492
▁restaurants	-2493
▁eval	-2494
ames	-2495
atic	-2496
clud	-2497
▁Att	-2498
avour	-2499
▁tast	-2500
▁sources	-2501
▁maintain	-2502
bean	-2503
▁Cro	-2504
ecast	-2505
▁means	-2506
▁commod	-2507
▁variety	-2508
▁Venezuel	-2509
▁disclosure	-2510
▁UK	-2511
arter	-2512
▁2.	-2513
ager	-2514
ects	-2515
ured	-2516
▁tax	-2517
▁Show	-2518
▁2003,	-2519
▁north	-2520
▁2002."	-2521
▁Custom	-2522
▁please	-2523
▁developing	-2524
▁Stand	-2525
▁chain	-2526
▁sectors	-2527
▁manufacturing	-2528
▁sel	-2529
▁Plan	-2530
▁Prin	-2531
▁short	-2532
▁manufacturers	-2533
dom	-2534
pid	-2535
▁99	-2536
▁aw	-2537
▁City	-2538
▁Guide	-2539
▁Alberta	-2540
▁Organic	-2541
▁particularly	-2542
tic	-2543
etic	-2544
These	-2545
▁1999	-2546
▁pass	-2547
igation	-2548
▁origin	-2549
agn	-2550
urs	-2551
aily	-2552
▁Disc	-2553
▁John	-2554
▁sell	-2555
▁chall	-2556
▁Prepar	-2557
▁Australia	-2558
▁competitive	-2559
▁40	-2560
▁role	-2561
▁Retail	-2562
▁Process	-2563
▁astronom	-2564
ims	-2565
nic	-2566
▁ur	-2567
info	-2568
ATION	-2569
▁Post	-2570
ousing	-2571
▁coast	-2572
▁record	-2573
▁tonnes	-2574
vey	-2575
▁Bu	-2576
augh	-2577
free	-2578
ieve	-2579
▁store	-2580
▁providing	-2581
urk	-2582
▁Dec	-2583
arant	-2584
oront	-2585
▁turn	-2586
▁deliver	-2587
.5%	-2588
▁Company	-2589
ilar	-2590
ival	-2591
armace	-2592
ivision	-2593
▁equipment	-2594
armaceutical	-2595
23	-2596
HE	-2597
iol	-2598
▁lik	-2599
thers	-2600
urance	-2601
▁document	-2602
Un	-2603
pan	-2604
▁She	-2605
▁target	-2606
▁OF	-2607
▁line	-2608
▁Russia	-2609
▁difficult	-2610
▁considered	-2611
aus	-2612
iam	-2613
ica	-2614
▁eth	-2615
oronto	-2616
essment	-2617
17	-2618
▁75	-2619
aper	-2620
▁Est	-2621
▁back	-2622
▁here	-2623
▁Franc	-2624
▁factors	-2625
▁particular	-2626
To	-2627
ony	-2628
rated	-2629
▁Site	-2630
▁Veter	-2631
▁Center	-2632
▁accept	-2633
▁method	-2634
▁Languages	-2635
We	-2636
▁28	-2637
aren	-2638
▁quest	-2639
▁System	-2640
▁return	-2641
▁working	-2642
▁President	-2643
app	-2644
ave	-2645
ills	-2646
▁age	-2647
▁beg	-2648
▁possible	-2649
▁specialty	-2650
▁opportunity	-2651
▁responsible	-2652
ior	-2653
asion	-2654
gentina	-2655
▁2004."	-2656
▁collect	-2657
▁grocery	-2658
▁reached	-2659
▁benefits	-2660
▁included	-2661
▁position	-2662
▁September	-2663
▁Ins	-2664
▁They	-2665
▁pers	-2666
▁trends	-2667
▁contract	-2668
▁especially	-2669
hest	-2670
▁plant	-2671
▁Organization	-2672
99	-2673
▁Bi	-2674
ébec	-2675
▁$1.	-2676
▁Fund	-2677
▁redu	-2678
encies	-2679
▁buyers	-2680
▁wholes	-2681
ublished	-2682
▁Profile	-2683
Ag	-2684
▁next	-2685
▁located	-2686
▁directly	-2687
▁importers	-2688
HR	-2689
pe	-2690
▁Sub	-2691
▁beh	-2692
rorism	-2693
▁underst	-2694
▁Environmental	-2695
%),	-2696
ria	-2697
▁AL	-2698
idence	-2699
▁rapid	-2700
▁fruits	-2701
▁outlets	-2702
▁reflect	-2703
▁Consumer	-2704
▁exported	-2705
aple	-2706
▁Occ	-2707
▁Ref	-2708
atoes	-2709
based	-2710
▁doll	-2711
▁2003."	-2712
▁Review	-2713
▁Scotia	-2714
▁financial	-2715
ense	-2716
▁Bel	-2717
▁apply	-2718
▁techn	-2719
▁already	-2720
▁generally	-2721
33	-2722
4,	-2723
iotech	-2724
▁above	-2725
▁study	-2726
▁attract	-2727
▁PRO	-2728
▁beverage	-2729
▁personal	-2730
-31	-2731
▁Hal	-2732
atche	-2733
▁until	-2734
▁associ	-2735
▁purpose	-2736
▁Immigration	-2737
▁pow	-2738
heast	-2739
ither	-2740
▁1998	-2741
▁West	-2742
▁influ	-2743
▁2006-07	-2744
▁2007-09	-2745
▁facilities	-2746
▁Rest	-2747
▁head	-2748
▁domin	-2749
duction	-2750
▁across	-2751
▁prefer	-2752
▁language	-2753
▁provisions	-2754
ged	-2755
▁ach	-2756
▁dra	-2757
asing	-2758
▁East	-2759
▁2002,	-2760
▁Commercial	-2761
▁agreements	-2762
▁interested	-2763
▁application	-2764
26	-2765
vert	-2766
▁brands	-2767
▁observ	-2768
▁single	-2769
▁greater	-2770
▁involved	-2771
▁Management	-2772
IT	-2773
SE	-2774
While	-2775
▁quant	-2776
▁proced	-2777
▁Kingdom	-2778
▁encoura	-2779
▁Regional	-2780
▁Marketing	-2781
76	-2782
ape	-2783
ute	-2784
▁Ter	-2785
enced	-2786
▁elect	-2787
▁months	-2788
▁Toronto	-2789
ighest	-2790
▁entry	-2791
▁point	-2792
▁Republic	-2793
)"	-2794
go	-2795
ps	-2796
place	-2797
▁Kore	-2798
▁Nova	-2799
▁Total	-2800
▁rules	-2801
▁Consul	-2802
▁competition	-2803
POR	-2804
ghan	-2805
▁bod	-2806
▁Asian	-2807
OOD	-2808
▁Den	-2809
▁eas	-2810
force	-2811
redit	-2812
▁Rece	-2813
▁event	-2814
▁chains	-2815
▁packaging	-2816
of	-2817
acter	-2818
▁Code	-2819
icient	-2820
▁justice	-2821
▁activity	-2822
▁intended	-2823
▁successful	-2824
▁.	-2825
etter	-2826
▁fast	-2827
▁mult	-2828
▁Street	-2829
▁customs	-2830
▁poultry	-2831
▁similar	-2832
iversification	-2833
ung	-2834
▁sy	-2835
istic	-2836
▁Bever	-2837
▁Overview	-2838
▁labelling	-2839
▁Investment	-2840
▁additional	-2841
oday	-2842
ength	-2843
iddle	-2844
▁Québec	-2845
▁claims	-2846
▁provincial	-2847
be	-2848
▁Aug	-2849
▁Box	-2850
▁Bro	-2851
▁eng	-2852
endit	-2853
ening	-2854
oming	-2855
poses	-2856
oration	-2857
▁another	-2858
▁reports	-2859
▁household	-2860
ministration	-2861
82	-2862
▁day	-2863
▁Sask	-2864
atively	-2865
▁Travel	-2866
▁Hel	-2867
ateral	-2868
ensive	-2869
▁Women	-2870
▁whole	-2871
▁customers	-2872
RE	-2873
UC	-2874
ivest	-2875
▁2001,	-2876
▁early	-2877
▁rates	-2878
▁proceed	-2879
86	-2880
▁mand	-2881
▁rice	-2882
▁ready	-2883
▁respond	-2884
▁communities	-2885
▁individuals	-2886
LE	-2887
uk	-2888
yl	-2889
medi	-2890
▁Week	-2891
▁Civil	-2892
▁Sales	-2893
▁broad	-2894
▁innov	-2895
bur	-2896
▁mix	-2897
gress	-2898
▁date	-2899
▁subm	-2900
▁change	-2901
▁plants	-2902
▁social	-2903
▁Strateg	-2904
▁capital	-2905
▁followed	-2906
▁presence	-2907
mb	-2908
▁pat	-2909
▁highest	-2910
▁certific	-2911
▁Form	-2912
▁char	-2913
▁quick	-2914
areness	-2915
▁Division	-2916
▁Ob	-2917
ital	-2918
sequ	-2919
▁tour	-2920
ension	-2921
▁Afghan	-2922
ivestock	-2923
▁segment	-2924
▁decision	-2925
▁Legislative	-2926
3)	-2927
omin	-2928
▁soy	-2929
stuff	-2930
▁Wheat	-2931
▁Malays	-2932
▁expand	-2933
itizenship	-2934
▁Distribut	-2935
iev	-2936
uck	-2937
▁27	-2938
▁seen	-2939
▁coffee	-2940
ependent	-2941
▁princip	-2942
ares	-2943
lies	-2944
▁Kong	-2945
▁corn	-2946
▁decl	-2947
anning	-2948
▁carry	-2949
▁Special	-2950
▁Argentina	-2951
wh	-2952
▁jud	-2953
ledge	-2954
▁cour	-2955
▁crit	-2956
ilding	-2957
▁known	-2958
▁throughout	-2959
83	-2960
OT	-2961
▁Veg	-2962
▁What	-2963
▁care	-2964
▁class	-2965
▁Region	-2966
atch	-2967
▁(20	-2968
icken	-2969
▁Cost	-2970
▁News	-2971
▁half	-2972
ocolate	-2973
▁valued	-2974
▁Occasion	-2975
PDF	-2976
oon	-2977
ably	-2978
king	-2979
▁AND	-2980
▁art	-2981
▁cor	-2982
ildren	-2983
▁amend	-2984
▁promote	-2985
▁majority	-2986
5,	-2987
▁33	-2988
osed	-2989
▁raw	-2990
▁highly	-2991
▁2007-04-1	-2992
EX	-2993
imate	-2994
ociety	-2995
▁likely	-2996
24	-2997
pre	-2998
▁Sm	-2999
ruit	-3000
▁air	-3001
▁bal	-3002
▁comb	-3003
▁least	-3004
▁meals	-3005
▁Japanese	-3006
▁certification	-3007
▁83	-3008
iled	-3009
▁Hong	-3010
▁gener	-3011
▁received	-3012
ered	-3013
load	-3014
found	-3015
rants	-3016
▁River	-3017
▁start	-3018
ecutive	-3019
▁2006-11-2	-3020
▁sat	-3021
▁More	-3022
▁Customs	-3023
▁overall	-3024
▁Releases	-3025
Government	-3026
▁exporting	-3027
%,	-3028
ulk	-3029
acity	-3030
▁Arts	-3031
ealand	-3032
▁border	-3033
inary	-3034
ilateral	-3035
▁fishery	-3036
▁primary	-3037
▁regions	-3038
▁compared	-3039
oti	-3040
ush	-3041
ison	-3042
side	-3043
▁force	-3044
▁Frozen	-3045
▁transfer	-3046
▁according	-3047
▁Philippines	-3048
▁Che	-3049
▁etc	-3050
▁pasta	-3051
foundland	-3052
▁advantage	-3053
6)	-3054
%."	-3055
ols	-3056
▁Ge	-3057
itle	-3058
▁And	-3059
▁Gen	-3060
▁sou	-3061
▁Eval	-3062
▁Grow	-3063
▁Past	-3064
▁Italy	-3065
▁concept	-3066
▁lobster	-3067
▁Venezuela	-3068
▁Ev	-3069
▁below	-3070
▁replaced	-3071
oa	-3072
Acc	-3073
cul	-3074
▁3.	-3075
They	-3076
▁Social	-3077
▁Zealand	-3078
▁positive	-3079
▁primarily	-3080
▁Conference	-3081
met	-3082
▁cho	-3083
▁come	-3084
ailand	-3085
struct	-3086
ployment	-3087
▁changes	-3088
▁approach	-3089
▁2006-03-2	-3090
▁Citizenship	-3091
43	-3092
ENT	-3093
▁aut	-3094
▁gain	-3095
▁Water	-3096
▁refer	-3097
ectionery	-3098
▁Dr	-3099
avil	-3100
▁Lat	-3101
chool	-3102
iling	-3103
▁USDA	-3104
▁said	-3105
▁clear	-3106
▁concent	-3107
▁suggest	-3108
▁Veterans	-3109
▁la	-3110
real	-3111
anada	-3112
▁source	-3113
▁benefit	-3114
▁assistance	-3115
ET	-3116
ida	-3117
▁expert	-3118
▁Consult	-3119
▁Competition	-3120
int	-3121
▁(7	-3122
empt	-3123
▁Loc	-3124
istor	-3125
coholic	-3126
▁Awards	-3127
▁nearly	-3128
▁2006-10-1	-3129
▁commission	-3130
▁distributor	-3131
At	-3132
yd	-3133
▁'	-3134
500	-3135
ban	-3136
izes	-3137
▁Sur	-3138
▁fat	-3139
▁Sout	-3140
itical	-3141
▁content	-3142
▁results	-3143
▁purposes	-3144
▁registered	-3145
Im	-3146
ude	-3147
▁La	-3148
▁along	-3149
▁systems	-3150
▁concerns	-3151
▁Evaluation	-3152
OS	-3153
her	-3154
▁21	-3155
Comm	-3156
acks	-3157
come	-3158
ille	-3159
▁tog	-3160
inces	-3161
urkey	-3162
▁sail	-3163
▁Notes	-3164
▁Denmark	-3165
▁Housing	-3166
▁Present	-3167
▁together	-3168
▁August	-3169
▁medium	-3170
▁Section	-3171
;"	-3172
lled	-3173
quir	-3174
ockey	-3175
▁sweet	-3176
▁except	-3177
▁foodstuff	-3178
2,	-3179
▁ne	-3180
▁One	-3181
▁lit	-3182
▁final	-3183
▁links	-3184
▁plans	-3185
▁ethnic	-3186
▁global	-3187
▁standard	-3188
▁character	-3189
▁Diversification	-3190
CI	-3191
cy	-3192
oms	-3193
▁$6	-3194
▁Ac	-3195
▁Mc	-3196
▁San	-3197
▁Drug	-3198
onesia	-3199
▁Grain	-3200
▁either	-3201
▁2006-04-2	-3202
▁Mac	-3203
ureau	-3204
▁live	-3205
▁House	-3206
▁shows	-3207
▁healthy	-3208
▁identify	-3209
▁employees	-3210
▁Biotechnology	-3211
oss	-3212
▁Te	-3213
▁suff	-3214
▁Indust	-3215
▁continues	-3216
16)	-3217
New	-3218
row	-3219
▁jur	-3220
▁Econom	-3221
▁issued	-3222
▁problems	-3223
▁documents	-3224
%)	-3225
▁Impro	-3226
▁Panel	-3227
▁court	-3228
▁discuss	-3229
▁Malaysia	-3230
▁regarding	-3231
▁experience	-3232
lear	-3233
▁Iss	-3234
anced	-3235
▁Cert	-3236
▁exam	-3237
▁harvest	-3238
za	-3239
quac	-3240
▁His	-3241
▁Meat	-3242
▁Summ	-3243
▁cere	-3244
▁Suite	-3245
▁request	-3246
▁practices	-3247
▁employment	-3248
▁performance	-3249
▁cr	-3250
imum	-3251
▁obl	-3252
▁sett	-3253
▁Thailand	-3254
▁accounts	-3255
▁measures	-3256
▁previous	-3257
▁substant	-3258
▁Afghanistan	-3259
eep	-3260
oid	-3261
▁2,	-3262
▁29	-3263
seed	-3264
▁Vis	-3265
▁nutr	-3266
ington	-3267
▁Energy	-3268
▁Security	-3269
▁determine	-3270
EEC	-3271
▁Cub	-3272
▁sea	-3273
▁six	-3274
▁serv	-3275
▁Speech	-3276
▁Invests	-3277
According	-3278
ici	-3279
ortg	-3280
izing	-3281
▁risk	-3282
ancing	-3283
▁beans	-3284
▁bread	-3285
▁forecast	-3286
house	-3287
ology	-3288
▁Year	-3289
▁Crown	-3290
▁white	-3291
▁season	-3292
▁capacity	-3293
45	-3294
He	-3295
TR	-3296
▁35	-3297
rate	-3298
▁THE	-3299
▁integ	-3300
▁mainly	-3301
▁analysis	-3302
CA	-3303
now	-3304
ream	-3305
▁sau	-3306
▁cult	-3307
avilion	-3308
▁Bureau	-3309
................	-3310
Sp	-3311
by	-3312
▁Main	-3313
▁prem	-3314
atchewan	-3315
▁although	-3316
quaculture	-3317
73	-3318
89	-3319
zer	-3320
▁45	-3321
▁ide	-3322
▁Supp	-3323
▁sale	-3324
▁Member	-3325
▁larger	-3326
▁Prepared	-3327
▁training	-3328
▁2006-09-2	-3329
▁participation	-3330
ites	-3331
riers	-3332
▁post	-3333
▁slow	-3334
ground	-3335
▁telesc	-3336
▁Partners	-3337
▁Southeast	-3338
▁Assessment	-3339
▁($	-3340
▁Le	-3341
▁kg	-3342
▁Mod	-3343
▁dise	-3344
ockeye	-3345
▁Brand	-3346
▁young	-3347
▁Address	-3348
▁challeng	-3349
ama	-3350
▁To	-3351
▁Rem	-3352
oints	-3353
▁dest	-3354
ansion	-3355
istory	-3356
▁rough	-3357
▁taken	-3358
▁express	-3359
▁farmers	-3360
▁looking	-3361
▁importance	-3362
▁subsection	-3363
ne	-3364
▁BC	-3365
ches	-3366
eleb	-3367
▁Are	-3368
▁arr	-3369
▁egg	-3370
▁beer	-3371
▁wide	-3372
change	-3373
ounter	-3374
▁Exhib	-3375
▁parties	-3376
▁expendit	-3377
▁Belg	-3378
▁Resp	-3379
▁meal	-3380
▁notice	-3381
▁scient	-3382
▁describ	-3383
▁published	-3384
▁Appointment	-3385
▁infrastructure	-3386
TO	-3387
arib	-3388
omes	-3389
▁did	-3390
▁juice	-3391
▁Standards	-3392
29	-3393
▁Oper	-3394
▁2005."	-3395
▁evaluation	-3396
icip	-3397
oked	-3398
rupt	-3399
ronic	-3400
▁Home	-3401
▁Korea	-3402
▁funding	-3403
6,	-3404
79	-3405
▁Dep	-3406
▁put	-3407
light	-3408
▁fund	-3409
▁biotech	-3410
▁relevant	-3411
▁industries	-3412
▁operations	-3413
▁Out	-3414
▁chem	-3415
▁2005.	-3416
▁crops	-3417
▁reduc	-3418
▁Future	-3419
▁territ	-3420
▁network	-3421
infoexport	-3422
▁2006-05-0	-3423
▁Financial	-3424
▁Newfoundland	-3425
vd	-3426
pper	-3427
ways	-3428
▁hyp	-3429
▁York	-3430
▁Benef	-3431
ortgage	-3432
▁2001."	-3433
AG	-3434
EL	-3435
▁Red	-3436
aries	-3437
▁Fact	-3438
▁instru	-3439
▁modern	-3440
▁created	-3441
▁substantial	-3442
▁institutions	-3443
▁organization	-3444
then	-3445
▁Jud	-3446
▁bak	-3447
▁som	-3448
▁fair	-3449
▁agent	-3450
▁producer	-3451
▁strategy	-3452
▁effective	-3453
▁Us	-3454
alls	-3455
▁Can	-3456
▁Pay	-3457
inter	-3458
▁Docu	-3459
Further	-3460
▁broker	-3461
▁accounted	-3462
▁Saskatchewan	-3463
FA	-3464
de	-3465
ona	-3466
tary	-3467
asons	-3468
▁news	-3469
astern	-3470
▁Assist	-3471
▁smaller	-3472
▁towards	-3473
▁2007-03-2	-3474
▁Initiative	-3475
▁du	-3476
Other	-3477
▁firm	-3478
anging	-3479
▁Salmon	-3480
▁detail	-3481
▁excell	-3482
▁having	-3483
▁privacy	-3484
▁Province	-3485
▁knowledge	-3486
▁#	-3487
DUC	-3488
▁36	-3489
ollab	-3490
▁Laun	-3491
ective	-3492
▁Indonesia	-3493
▁%	-3494
ott	-3495
▁Ro	-3496
ched	-3497
▁10%	-3498
▁mer	-3499
imals	-3500
▁times	-3501
▁province	-3502
▁categories	-3503
▁relatively	-3504
date	-3505
hana	-3506
▁20%	-3507
▁FDA	-3508
▁USA	-3509
▁writ	-3510
espite	-3511
▁Chief	-3512
▁recently	-3513
▁requires	-3514
▁Announced	-3515
▁restaurant	-3516
▁transportation	-3517
▁cop	-3518
▁1990	-3519
▁laws	-3520
inning	-3521
aughter	-3522
engthen	-3523
▁create	-3524
▁complete	-3525
▁commodities	-3526
PP	-3527
ili	-3528
▁life	-3529
▁basic	-3530
▁Forces	-3531
▁remains	-3532
abilities	-3533
▁protection	-3534
▁ge	-3535
idel	-3536
▁Ant	-3537
ecting	-3538
▁rapidly	-3539
▁Particip	-3540
▁category	-3541
echnologies	-3542
▁registration	-3543
OC	-3544
esty	-3545
ocoa	-3546
play	-3547
▁Vir	-3548
orial	-3549
venue	-3550
▁want	-3551
▁treat	-3552
▁depend	-3553
▁listed	-3554
ians	-3555
wide	-3556
aiwan	-3557
ittle	-3558
rador	-3559
▁Lead	-3560
▁Space	-3561
▁Prince	-3562
▁others	-3563
aribbean	-3564
▁roughly	-3565
▁supplier	-3566
74	-3567
▁CA	-3568
iche	-3569
lied	-3570
ores	-3571
▁Lim	-3572
▁Wal	-3573
▁laun	-3574
▁move	-3575
▁Advis	-3576
▁Green	-3577
▁space	-3578
▁Captain	-3579
▁becoming	-3580
▁purchase	-3581
▁reference	-3582
▁Sl	-3583
▁deb	-3584
▁drug	-3585
▁Coast	-3586
▁cream	-3587
▁flour	-3588
▁Markets	-3589
▁efforts	-3590
▁Labrador	-3591
▁projects	-3592
▁provinces	-3593
▁manufacturer	-3594
da	-3595
ades	-3596
onse	-3597
▁CON	-3598
erous	-3599
iting	-3600
▁Prom	-3601
▁Rural	-3602
▁family	-3603
▁negoti	-3604
▁prevent	-3605
▁expanding	-3606
▁Protection	-3607
▁>	-3608
ots	-3609
ided	-3610
▁deg	-3611
echan	-3612
▁Some	-3613
▁mark	-3614
▁canned	-3615
▁outside	-3616
wise	-3617
overy	-3618
▁days	-3619
▁type	-3620
▁forward	-3621
▁website	-3622
▁2006-05-1	-3623
▁2006-09-1	-3624
▁2007-03-0	-3625
▁therefore	-3626
▁purchasing	-3627
▁foodservice	-3628
/0	-3629
▁4.	-3630
ework	-3631
▁Appro	-3632
▁Dairy	-3633
▁decline	-3634
▁Montreal	-3635
▁spending	-3636
3,	-3637
add	-3638
aps	-3639
Over	-3640
inct	-3641
rect	-3642
rimp	-3643
▁note	-3644
▁text	-3645
▁field	-3646
▁increases	-3647
▁containing	-3648
▁94	-3649
▁RE	-3650
▁Nor	-3651
▁Peru	-3652
▁Will	-3653
issions	-3654
ashington	-3655
▁restrict	-3656
▁education	-3657
▁inspection	-3658
84	-3659
irc	-3660
▁56	-3661
ette	-3662
▁cal	-3663
▁labour	-3664
▁prohib	-3665
▁reported	-3666
▁department	-3667
ane	-3668
aser	-3669
istr	-3670
▁ant	-3671
iverse	-3672
▁Award	-3673
▁trust	-3674
▁women	-3675
▁weight	-3676
ramework	-3677
▁relationship	-3678
▁Administration	-3679
-10	-3680
▁TX	-3681
anks	-3682
iles	-3683
▁old	-3684
cluding	-3685
▁altern	-3686
▁selling	-3687
▁2006-10-2	-3688
▁Caribbean	-3689
▁foodstuffs	-3690
ka	-3691
ams	-3692
▁70	-3693
imin	-3694
▁Bio	-3695
ovine	-3696
▁taste	-3697
▁Turkey	-3698
▁inform	-3699
▁Belgium	-3700
▁Contacts	-3701
▁designed	-3702
▁Executive	-3703
▁awareness	-3704
▁preparations	-3705
▁,	-3706
▁Fre	-3707
iforn	-3708
▁Film	-3709
▁lack	-3710
▁offers	-3711
▁though	-3712
▁2006-03-0	-3713
put	-3714
arts	-3715
clus	-3716
▁dep	-3717
▁sol	-3718
▁Park	-3719
▁vess	-3720
▁types	-3721
▁Observ	-3722
▁persons	-3723
▁trading	-3724
▁complaint	-3725
▁amendments	-3726
▁responsibility	-3727
osp	-3728
▁far	-3729
▁body	-3730
▁oils	-3731
Market	-3732
▁bring	-3733
iveness	-3734
▁drinks	-3735
idelines	-3736
▁facilit	-3737
▁usually	-3738
▁provision	-3739
55	-3740
IL	-3741
omp	-3742
PORT	-3743
bour	-3744
▁mov	-3745
index	-3746
ternal	-3747
▁exceed	-3748
▁slight	-3749
▁subsid	-3750
ographic	-3751
▁complaints	-3752
isd	-3753
▁PO	-3754
rive	-3755
▁(19	-3756
▁job	-3757
aster	-3758
▁bulk	-3759
▁fill	-3760
▁give	-3761
▁events	-3762
▁harmon	-3763
▁annually	-3764
▁wholesal	-3765
▁2006-04-1	-3766
▁2006-12-1	-3767
▁implementation	-3768
ges	-3769
▁mean	-3770
▁vent	-3771
▁Manager	-3772
▁balance	-3773
▁Communities	-3774
▁pharmaceutical	-3775
ips	-3776
ule	-3777
▁Mus	-3778
▁Sea	-3779
orida	-3780
▁info	-3781
iction	-3782
ousand	-3783
▁Works	-3784
ifornia	-3785
▁Edward	-3786
▁Events	-3787
▁ability	-3788
▁Manufact	-3789
▁confectionery	-3790
ein	-3791
ivity	-3792
useum	-3793
▁rise	-3794
▁Crime	-3795
▁Youth	-3796
▁close	-3797
▁defin	-3798
resents	-3799
▁Taiwan	-3800
▁processors	-3801
PA	-3802
aud	-3803
rem	-3804
uis	-3805
▁Uk	-3806
▁sw	-3807
ords	-3808
ourn	-3809
▁50%	-3810
▁lat	-3811
onstr	-3812
▁Help	-3813
▁Road	-3814
▁diet	-3815
ourmet	-3816
▁Latin	-3817
▁joint	-3818
▁Action	-3819
▁dispos	-3820
▁existing	-3821
▁Net	-3822
uties	-3823
▁Pass	-3824
▁phys	-3825
etween	-3826
lation	-3827
▁chann	-3828
▁Senior	-3829
▁became	-3830
▁nature	-3831
ermarkets	-3832
▁Projects	-3833
▁Sciences	-3834
MP	-3835
ik	-3836
▁DE	-3837
thern	-3838
▁adop	-3839
▁soft	-3840
▁tend	-3841
▁Ghana	-3842
▁Innov	-3843
▁Peter	-3844
▁Title	-3845
ography	-3846
▁Judicial	-3847
▁supplied	-3848
▁continued	-3849
----------------	-3850
34	-3851
gy	-3852
aint	-3853
isms	-3854
▁(50	-3855
rates	-3856
▁rank	-3857
rorist	-3858
▁2006,	-3859
▁model	-3860
ception	-3861
▁active	-3862
▁cannot	-3863
▁eating	-3864
▁energy	-3865
▁animals	-3866
▁fishing	-3867
▁sockeye	-3868
▁employer	-3869
▁Consulate	-3870
▁represents	-3871
ylv	-3872
▁AS	-3873
raft	-3874
▁Dis	-3875
▁Two	-3876
eties	-3877
▁Trad	-3878
▁Vict	-3879
00,000	-3880
essage	-3881
unicip	-3882
▁Compl	-3883
▁lines	-3884
▁Territ	-3885
▁action	-3886
▁Science	-3887
▁chilled	-3888
▁storage	-3889
▁shipping	-3890
▁Exporters	-3891
▁situation	-3892
VE	-3893
ré	-3894
ARK	-3895
ago	-3896
▁5.	-3897
▁Sk	-3898
epar	-3899
▁Fac	-3900
chedu	-3901
▁clos	-3902
ership	-3903
▁rather	-3904
essional	-3905
▁Improve	-3906
▁payment	-3907
TH	-3908
Cons	-3909
exas	-3910
righ	-3911
▁Many	-3912
▁pred	-3913
▁Emerg	-3914
▁compon	-3915
▁agencies	-3916
▁distinct	-3917
ERS	-3918
erce	-3919
▁CAN	-3920
▁city	-3921
▁simp	-3922
▁week	-3923
▁accur	-3924
▁Austria	-3925
▁2007-02-0	-3926
▁Elections	-3927
▁Washington	-3928
▁initiatives	-3929
ID	-3930
ERT	-3931
anch	-3932
etro	-3933
duced	-3934
ordin	-3935
▁Back	-3936
▁Count	-3937
▁Intro	-3938
▁Veget	-3939
berries	-3940
▁Museum	-3941
▁attribut	-3942
▁procedures	-3943
Ar	-3944
▁El	-3945
▁Sy	-3946
▁Bal	-3947
▁Non	-3948
▁ice	-3949
comes	-3950
▁FOOD	-3951
▁Meet	-3952
▁sust	-3953
osition	-3954
▁2007-02-1	-3955
▁Convention	-3956
▁certificate	-3957
road	-3958
▁upon	-3959
▁began	-3960
mediate	-3961
▁decrease	-3962
▁obtained	-3963
▁expansion	-3964
▁experienced	-3965
▁significantly	-3966
Ad	-3967
By	-3968
net	-3969
uls	-3970
▁Pot	-3971
▁Sim	-3972
▁voy	-3973
ruise	-3974
▁little	-3975
▁search	-3976
urrently	-3977
▁Florida	-3978
▁partner	-3979
▁sustain	-3980
▁criminal	-3981
▁2007-02-2	-3982
▁political	-3983
▁shipments	-3984
▁expedition	-3985
▁industrial	-3986
FIA	-3987
rief	-3988
well	-3989
▁Sun	-3990
▁dev	-3991
anned	-3992
▁Conf	-3993
▁grew	-3994
▁spir	-3995
▁minor	-3996
▁press	-3997
▁Border	-3998
▁cheese	-3999
▁duties	-4000
▁hearing	-4001
▁receive	-4002
▁tariffs	-4003
▁Criminal	-4004
▁approved	-4005
▁consolid	-4006
▁fisheries	-4007
UN	-4008
itam	-4009
▁Gas	-4010
▁mar	-4011
▁sem	-4012
▁tot	-4013
orney	-4014
▁acid	-4015
▁caus	-4016
▁reli	-4017
itment	-4018
▁Halal	-4019
▁grown	-4020
▁learn	-4021
▁survey	-4022
▁indicated	-4023
▁otherwise	-4024
▁California	-4025
▁(30	-4026
▁Fam	-4027
▁eat	-4028
▁ful	-4029
▁men	-4030
▁urban	-4031
uralism	-4032
▁2006-11-0	-4033
▁slaughter	-4034
▁vegetable	-4035
21	-4036
.4%	-4037
oper	-4038
▁11.	-4039
▁ele	-4040
igure	-4041
ullet	-4042
▁fall	-4043
▁emerg	-4044
ilitary	-4045
▁livestock	-4046
fl	-4047
eur	-4048
▁90	-4049
▁Cam	-4050
▁Ext	-4051
▁Key	-4052
▁dro	-4053
umber	-4054
▁Milk	-4055
▁wild	-4056
▁stars	-4057
▁cattle	-4058
▁entire	-4059
▁jurisd	-4060
▁species	-4061
▁Relations	-4062
▁authority	-4063
▁concerning	-4064
▁respectively	-4065
78	-4066
acco	-4067
ened	-4068
▁Sign	-4069
▁Text	-4070
uality	-4071
▁ALERT	-4072
▁Study	-4073
▁satis	-4074
▁presvd	-4075
▁problem	-4076
▁planning	-4077
▁excellent	-4078
▁languages	-4079
▁identified	-4080
39	-4081
▁49	-4082
▁Dav	-4083
▁Dem	-4084
elves	-4085
▁duty	-4086
▁Under	-4087
▁Portug	-4088
▁monitor	-4089
essential	-4090
▁demonstr	-4091
▁equality	-4092
▁telescope	-4093
ote	-4094
▁(0	-4095
angh	-4096
even	-4097
race	-4098
▁Imp	-4099
quire	-4100
▁Educ	-4101
uclear	-4102
▁Fresh	-4103
▁fract	-4104
▁separ	-4105
Despite	-4106
stances	-4107
▁edible	-4108
▁expect	-4109
▁labels	-4110
▁reduce	-4111
▁reform	-4112
▁players	-4113
▁question	-4114
▁2006-12-0	-4115
▁2007-05-2	-4116
▁2007-06-2	-4117
▁chocolate	-4118
▁decreased	-4119
▁challenges	-4120
▁$0	-4121
ineg	-4122
going	-4123
▁Parks	-4124
▁Hispan	-4125
ineering	-4126
▁Restaur	-4127
▁appoint	-4128
▁approval	-4129
▁packaged	-4130
▁2007-05-1	-4131
▁constitut	-4132
oi	-4133
▁€	-4134
When	-4135
▁Bre	-4136
▁Ret	-4137
▁cross	-4138
▁grant	-4139
▁makes	-4140
▁shopp	-4141
▁butter	-4142
▁itself	-4143
▁2006-02-0	-4144
▁strategic	-4145
▁technical	-4146
.2%	-4147
joy	-4148
▁II	-4149
▁Mé	-4150
more	-4151
▁Equ	-4152
duces	-4153
▁Meas	-4154
▁keep	-4155
▁self	-4156
▁seeds	-4157
ections	-4158
▁Status	-4159
▁matter	-4160
▁African	-4161
▁offices	-4162
▁Mortgage	-4163
▁quantity	-4164
36	-4165
▁65	-4166
▁Id	-4167
avor	-4168
▁Cor	-4169
▁get	-4170
▁tem	-4171
▁yet	-4172
▁Hear	-4173
▁Stra	-4174
▁Major	-4175
▁cities	-4176
▁collab	-4177
etically	-4178
▁chicken	-4179
▁guarant	-4180
▁measure	-4181
▁portion	-4182
epartments	-4183
▁insurance	-4184
▁businesses	-4185
More	-4186
ados	-4187
▁saf	-4188
raine	-4189
▁1997	-4190
▁Free	-4191
▁link	-4192
▁vict	-4193
▁daily	-4194
▁party	-4195
▁unique	-4196
▁Opening	-4197
▁brokers	-4198
international	-4199
DI	-4200
100	-4201
▁34	-4202
▁Do	-4203
/200	-4204
Mart	-4205
hens	-4206
▁Ave	-4207
▁dry	-4208
▁Most	-4209
▁Penn	-4210
▁shel	-4211
anghai	-4212
onitor	-4213
▁forms	-4214
atories	-4215
mselves	-4216
▁Eastern	-4217
▁farming	-4218
CE	-4219
All	-4220
▁enh	-4221
▁base	-4222
▁Stock	-4223
▁prosp	-4224
▁sites	-4225
ription	-4226
▁called	-4227
▁office	-4228
igations	-4229
▁Private	-4230
▁offered	-4231
▁decisions	-4232
▁employers	-4233
▁represented	-4234
gen	-4235
pdf	-4236
ampl	-4237
urch	-4238
urom	-4239
▁Nut	-4240
▁dou	-4241
▁log	-4242
elled	-4243
▁Land	-4244
▁fats	-4245
▁star	-4246
Common	-4247
canada	-4248
▁reasons	-4249
▁Attorney	-4250
▁shipment	-4251
▁governments	-4252
.6%	-4253
ancy	-4254
▁big	-4255
itial	-4256
ondon	-4257
inegar	-4258
▁Colom	-4259
▁Force	-4260
▁Texas	-4261
▁stead	-4262
▁Issues	-4263
▁mechan	-4264
▁Society	-4265
vertising	-4266
▁northern	-4267
▁beginning	-4268
▁recognized	-4269
lim	-4270
anit	-4271
vers	-4272
▁Hot	-4273
▁You	-4274
▁cod	-4275
▁away	-4276
▁Domin	-4277
▁living	-4278
▁taking	-4279
▁numbers	-4280
▁premium	-4281
▁Advisory	-4282
▁barriers	-4283
▁Consumers	-4284
▁announced	-4285
▁applicant	-4286
▁preserved	-4287
▁Institutes	-4288
▁themselves	-4289
▁Transportation	-4290
cel	-4291
see	-4292
▁5%	-4293
inds	-4294
iscal	-4295
ummer	-4296
▁(972	-4297
▁Expl	-4298
erious	-4299
▁longer	-4300
▁powder	-4301
▁bilateral	-4302
▁proceedings	-4303
CC	-4304
12)	-4305
ara	-4306
ift	-4307
uay	-4308
gypt	-4309
ocks	-4310
▁Bay	-4311
▁aud	-4312
▁Cuba	-4313
▁liqu	-4314
▁tools	-4315
▁Person	-4316
▁shrimp	-4317
▁meeting	-4318
▁subsequ	-4319
▁thousand	-4320
▁2006-02-2	-4321
▁purchases	-4322
▁Provincial	-4323
▁Observatory	-4324
gin	-4325
oice	-4326
▁Eff	-4327
itzer	-4328
ville	-4329
▁bank	-4330
lements	-4331
▁Receives	-4332
uromonitor	-4333
▁2006-03-1	-4334
▁corporation	-4335
RA	-4336
▁x	-4337
▁80	-4338
enew	-4339
▁FOR	-4340
▁run	-4341
▁Sold	-4342
▁done	-4343
rought	-4344
▁Avenue	-4345
▁nation	-4346
▁methods	-4347
▁Pavilion	-4348
87	-4349
9-7	-4350
▁6.	-4351
▁cut	-4352
icles	-4353
itable	-4354
▁enjoy	-4355
▁rising	-4356
▁Account	-4357
▁dollars	-4358
▁Shanghai	-4359
▁promotion	-4360
▁households	-4361
▁regulatory	-4362
▁environmental	-4363
bo	-4364
ée	-4365
▁41	-4366
▁fr	-4367
ador	-4368
▁nav	-4369
ellow	-4370
▁hard	-4371
▁ways	-4372
loaded	-4373
▁2000,	-4374
▁achieve	-4375
▁options	-4376
▁Programs	-4377
government	-4378
▁Appointments	-4379
.8%	-4380
equ	-4381
ret	-4382
▁95	-4383
▁EX	-4384
utch	-4385
▁hon	-4386
▁once	-4387
▁Today	-4388
▁admin	-4389
▁spect	-4390
▁grains	-4391
▁Israeli	-4392
▁extract	-4393
▁importing	-4394
▁interests	-4395
▁compliance	-4396
▁decreasing	-4397
▁reasonable	-4398
mp	-4399
App	-4400
VER	-4401
ger	-4402
uct	-4403
▁39	-4404
▁er	-4405
lick	-4406
phas	-4407
term	-4408
▁tea	-4409
▁Area	-4410
▁Barb	-4411
▁Winn	-4412
▁quot	-4413
▁Value	-4414
▁round	-4415
▁undert	-4416
itzerland	-4417
▁participants	-4418
▁relationships	-4419
UL	-4420
enge	-4421
ouns	-4422
▁Ang	-4423
▁bio	-4424
icers	-4425
iries	-4426
▁Char	-4427
▁Iran	-4428
▁wish	-4429
▁buying	-4430
▁Economy	-4431
▁freight	-4432
ederation	-4433
forcement	-4434
▁delivery	-4435
▁entering	-4436
▁exchange	-4437
▁slightly	-4438
▁2006-11-1	-4439
▁2007-03-1	-4440
▁accounting	-4441
▁Cooperation	-4442
65	-4443
irm	-4444
▁32	-4445
▁lif	-4446
right	-4447
▁insp	-4448
▁norm	-4449
▁farms	-4450
▁syrup	-4451
▁think	-4452
ulletin	-4453
▁course	-4454
▁central	-4455
▁offence	-4456
▁communic	-4457
▁adj	-4458
▁circ	-4459
▁conn	-4460
▁feat	-4461
▁join	-4462
▁Celeb	-4463
▁paper	-4464
istical	-4465
▁comply	-4466
▁Nuclear	-4467
▁culture	-4468
▁flavour	-4469
▁evidence	-4470
▁reaching	-4471
▁resource	-4472
▁legislative	-4473
bs	-4474
urt	-4475
▁$9	-4476
▁7.	-4477
ders	-4478
ests	-4479
▁kil	-4480
▁ten	-4481
▁disp	-4482
▁step	-4483
▁summ	-4484
▁took	-4485
▁David	-4486
▁noted	-4487
ylvania	-4488
▁2006."	-4489
▁PRODUC	-4490
▁attempt	-4491
struction	-4492
terrorism	-4493
▁Beverage	-4494
▁2008-03-1	-4495
▁Exhibition	-4496
▁nutritional	-4497
49	-4498
ua	-4499
eat	-4500
▁"[	-4501
▁WW	-4502
▁Map	-4503
Since	-4504
added	-4505
organ	-4506
▁salt	-4507
▁later	-4508
▁parts	-4509
▁compar	-4510
sylvania	-4511
▁cooking	-4512
▁detailed	-4513
▁preparation	-4514
▁38	-4515
iers	-4516
reme	-4517
uing	-4518
▁led	-4519
anged	-4520
▁school	-4521
orporate	-4522
▁Contribut	-4523
▁influence	-4524
AB	-4525
-17	-4526
.3%	-4527
ula	-4528
iscu	-4529
▁How	-4530
▁Anti	-4531
▁Beef	-4532
ession	-4533
▁Death	-4534
▁judge	-4535
▁Deputy	-4536
▁Grants	-4537
▁Growth	-4538
▁emphas	-4539
▁contains	-4540
IR	-4541
ux	-4542
itts	-4543
year	-4544
▁(90	-4545
▁000	-4546
▁COM	-4547
aters	-4548
▁Tour	-4549
▁cris	-4550
▁Popul	-4551
▁assum	-4552
▁status	-4553
▁defined	-4554
▁disease	-4555
▁grounds	-4556
▁totaled	-4557
▁tourism	-4558
▁criteria	-4559
▁processes	-4560
▁scientific	-4561
▁understand	-4562
▁considerable	-4563
MA	-4564
▁44	-4565
▁30%	-4566
▁Aut	-4567
▁pen	-4568
▁wid	-4569
ilies	-4570
iment	-4571
osing	-4572
rance	-4573
udget	-4574
▁Cook	-4575
▁came	-4576
▁thus	-4577
active	-4578
idents	-4579
▁Child	-4580
▁Super	-4581
▁Fraser	-4582
▁accord	-4583
▁behalf	-4584
▁extent	-4585
▁Message	-4586
▁officer	-4587
▁quickly	-4588
▁relating	-4589
▁2007-05-0	-4590
▁objectives	-4591
-04	-4592
▁43	-4593
▁di	-4594
▁mL	-4595
▁Use	-4596
ranch	-4597
▁face	-4598
▁Daily	-4599
▁wines	-4600
▁Ukraine	-4601
▁Website	-4602
▁centres	-4603
▁clients	-4604
▁reduced	-4605
▁children	-4606
▁Secretary	-4607
▁essential	-4608
▁Industrial	-4609
▁Production	-4610
ws	-4611
▁59	-4612
AFTA	-4613
ning	-4614
▁Read	-4615
rehens	-4616
▁meats	-4617
▁Network	-4618
▁believe	-4619
▁consumed	-4620
▁2008-02-2	-4621
▁discrimin	-4622
DC	-4623
OL	-4624
SC	-4625
▁1-8	-4626
▁Egypt	-4627
▁Fruit	-4628
▁youth	-4629
anitary	-4630
▁advice	-4631
▁matters	-4632
▁Ministers	-4633
▁contained	-4634
▁terrorist	-4635
▁Governments	-4636
▁professional	-4637
ita	-4638
uro	-4639
▁WTO	-4640
▁sex	-4641
▁Fort	-4642
agraph	-4643
▁2004.	-4644
▁Prior	-4645
▁green	-4646
▁Common	-4647
▁always	-4648
▁stated	-4649
▁modified	-4650
▁potatoes	-4651
▁proposed	-4652
▁visitors	-4653
▁objective	-4654
▁independent	-4655
aby	-4656
bre	-4657
uge	-4658
aska	-4659
iter	-4660
▁WWW	-4661
▁2010	-4662
▁eggs	-4663
▁late	-4664
▁loss	-4665
ussels	-4666
▁About	-4667
▁Costa	-4668
▁serve	-4669
▁mention	-4670
rehensive	-4671
▁Training	-4672
▁investig	-4673
▁totalled	-4674
▁Emergency	-4675
▁alcoholic	-4676
▁specified	-4677
▁representatives	-4678
67	-4679
(1)	-4680
-03	-4681
-06	-4682
.7%	-4683
▁AG	-4684
▁Pat	-4685
chand	-4686
ticle	-4687
▁mach	-4688
▁ware	-4689
▁break	-4690
▁sauce	-4691
▁staff	-4692
▁dollar	-4693
▁elimin	-4694
▁values	-4695
▁Increas	-4696
▁original	-4697
▁Pennsylvania	-4698
nd	-4699
▁X	-4700
con	-4701
▁72	-4702
aria	-4703
comm	-4704
▁tri	-4705
▁Bill	-4706
▁cred	-4707
▁purs	-4708
▁cause	-4709
▁neigh	-4710
▁today	-4711
▁Quality	-4712
▁wholesalers	-4713
ico	-4714
▁Gl	-4715
▁IS	-4716
used	-4717
▁vir	-4718
ducts	-4719
▁Fair	-4720
▁Life	-4721
▁Pack	-4722
Export	-4723
▁Applic	-4724
▁colour	-4725
▁needed	-4726
▁vinegar	-4727
▁regulation	-4728
▁Initiatives	-4729
cf	-4730
-05	-4731
-20	-4732
alt	-4733
Some	-4734
rist	-4735
▁500	-4736
enses	-4737
ieved	-4738
usion	-4739
▁Data	-4740
▁autom	-4741
▁cocoa	-4742
akehold	-4743
iolence	-4744
quiries	-4745
▁Animal	-4746
▁London	-4747
▁Middle	-4748
▁Please	-4749
▁largely	-4750
▁Building	-4751
▁Strategy	-4752
▁2006-04-0	-4753
▁producing	-4754
▁structure	-4755
▁associated	-4756
▁percentage	-4757
▁representative	-4758
.)	-4759
EW	-4760
rs	-4761
ala	-4762
exp	-4763
▁km	-4764
▁acts	-4765
▁Avail	-4766
▁Found	-4767
▁build	-4768
▁frequ	-4769
▁niche	-4770
▁stage	-4771
▁Propos	-4772
▁Benefit	-4773
▁allowed	-4774
▁testing	-4775
Currently	-4776
ownloaded	-4777
▁chemical	-4778
ya	-4779
ked	-4780
yle	-4781
▁42	-4782
orse	-4783
▁INC	-4784
▁Wel	-4785
ought	-4786
▁anal	-4787
▁driv	-4788
cience	-4789
entils	-4790
▁2003.	-4791
▁Ocean	-4792
▁Plant	-4793
▁Promot	-4794
▁apples	-4795
Solution	-4796
▁context	-4797
▁Commerce	-4798
▁comments	-4799
▁supplies	-4800
▁Companies	-4801
▁Stockwell	-4802
▁concerned	-4803
▁conducted	-4804
▁Switzerland	-4805
▁competitors	-4806
▁Publications	-4807
32	-4808
▁)	-4809
▁+	-4810
ino	-4811
que	-4812
ype	-4813
▁67	-4814
EXIC	-4815
From	-4816
lesh	-4817
pped	-4818
rest	-4819
▁40%	-4820
▁Aud	-4821
▁Mart	-4822
▁heav	-4823
▁Author	-4824
▁Norway	-4825
▁assess	-4826
▁govern	-4827
ological	-4828
▁complex	-4829
▁negative	-4830
▁workplace	-4831
▁strengthen	-4832
és	-4833
rie	-4834
ults	-4835
▁Mor	-4836
▁asp	-4837
itude	-4838
▁marg	-4839
▁James	-4840
▁Order	-4841
▁table	-4842
estival	-4843
▁Return	-4844
▁Develop	-4845
▁century	-4846
▁effects	-4847
▁serious	-4848
▁offering	-4849
▁2007-01-2	-4850
▁2007-12-1	-4851
▁described	-4852
▁mandatory	-4853
▁Assistance	-4854
▁accordance	-4855
rum	-4856
▁55	-4857
▁613	-4858
▁aim	-4859
▁imm	-4860
osher	-4861
▁call	-4862
irement	-4863
▁spread	-4864
▁unless	-4865
▁operate	-4866
▁affected	-4867
▁2007-11-0	-4868
▁questions	-4869
▁definition	-4870
▁strategies	-4871
69	-4872
aul	-4873
ales	-4874
resp	-4875
▁ban	-4876
▁too	-4877
asted	-4878
thing	-4879
▁bars	-4880
▁phot	-4881
aining	-4882
liment	-4883
ussion	-4884
utions	-4885
▁(416)	-4886
▁Local	-4887
▁arriv	-4888
▁charg	-4889
▁hours	-4890
▁occur	-4891
▁shell	-4892
▁takes	-4893
▁Branch	-4894
▁signed	-4895
▁toward	-4896
▁protect	-4897
▁Southwest	-4898
▁requirement	-4899
):	-4900
-02	-4901
ler	-4902
▁GMO	-4903
▁Sou	-4904
▁mid	-4905
▁Good	-4906
▁side	-4907
▁reput	-4908
▁south	-4909
▁charge	-4910
▁coming	-4911
▁degree	-4912
▁permit	-4913
juralism	-4914
▁refined	-4915
▁2007-06-0	-4916
▁Education	-4917
▁economies	-4918
▁resulting	-4919
▁Prevention	-4920
▁subsequent	-4921
▁restrictions	-4922
▁specifically	-4923
EU	-4924
can	-4925
erem	-4926
icle	-4927
▁squ	-4928
▁via	-4929
aches	-4930
▁Orig	-4931
▁Pork	-4932
▁Seed	-4933
ifying	-4934
iciency	-4935
▁Produc	-4936
▁centre	-4937
▁decade	-4938
▁enough	-4939
▁arrange	-4940
▁studies	-4941
▁Analysis	-4942
▁Colombia	-4943
Furthermore	-4944
▁Innovation	-4945
IF	-4946
VI	-4947
.1%	-4948
.9%	-4949
Ind	-4950
ows	-4951
▁mt	-4952
ampa	-4953
ipeg	-4954
omet	-4955
▁Arch	-4956
▁Team	-4957
▁Ident	-4958
▁Media	-4959
▁Treat	-4960
uations	-4961
▁Global	-4962
▁written	-4963
▁interpre	-4964
▁consistent	-4965
▁functional	-4966
▁introduced	-4967
▁departments	-4968
▁37	-4969
edic	-4970
▁(2)	-4971
▁(52	-4972
▁max	-4973
ARKET	-4974
burgh	-4975
▁Merc	-4976
▁mass	-4977
▁reve	-4978
Consum	-4979
igures	-4980
ophone	-4981
▁image	-4982
▁satisf	-4983
▁stable	-4984
▁Charter	-4985
▁Medical	-4986
▁Summary	-4987
▁applied	-4988
▁western	-4989
▁customer	-4990
▁2007-01-1	-4991
▁operating	-4992
▁cooperation	-4993
▁associations	-4994
14)	-4995
ney	-4996
▁CH	-4997
▁TO	-4998
▁tw	-4999
MENT	-5000
▁25%	-5001
▁Lic	-5002
▁Mad	-5003
▁div	-5004
water	-5005
▁Care	-5006
▁Lake	-5007
▁Your	-5008
▁grad	-5009
prises	-5010
▁Month	-5011
▁guide	-5012
Country	-5013
▁Family	-5014
▁Labour	-5015
▁factor	-5016
▁Commons	-5017
▁Municip	-5018
▁display	-5019
▁medical	-5020
▁pattern	-5021
▁vessels	-5022
▁Transfer	-5023
▁contacts	-5024
▁2008-04-2	-5025
▁2008-05-2	-5026
▁organized	-5027
▁treatment	-5028
▁Partnership	-5029
▁consultation	-5030
▁representing	-5031
erry	-5032
rees	-5033
tled	-5034
wing	-5035
▁Ent	-5036
▁Tun	-5037
iented	-5038
▁Establ	-5039
▁Histor	-5040
▁travel	-5041
ensation	-5042
employment	-5043
▁2007-10-1	-5044
▁certified	-5045
▁technologies	-5046
CP	-5047
ii	-5048
ESS	-5049
▁At	-5050
arth	-5051
cise	-5052
head	-5053
rary	-5054
ginia	-5055
▁qual	-5056
▁Annex	-5057
▁Price	-5058
▁Search	-5059
▁abroad	-5060
▁series	-5061
▁minimum	-5062
▁Hispanic	-5063
▁location	-5064
▁shopping	-5065
▁Background	-5066
▁obligations	-5067
blem	-5068
ging	-5069
rier	-5070
▁Page	-5071
▁Black	-5072
▁alone	-5073
▁scale	-5074
▁vitam	-5075
▁leader	-5076
▁cereals	-5077
▁creating	-5078
Downloaded	-5079
▁2008-05-0	-5080
▁attention	-5081
▁fractions	-5082
▁stakehold	-5083
▁recommendations	-5084
ze	-5085
19)	-5086
ega	-5087
ewh	-5088
eful	-5089
yers	-5090
▁Inv	-5091
▁gra	-5092
iding	-5093
iform	-5094
▁Rica	-5095
▁poor	-5096
ricted	-5097
▁powers	-5098
▁Success	-5099
▁carried	-5100
▁Astronom	-5101
▁sections	-5102
▁2007-04-2	-5103
yt	-5104
TRY	-5105
ump	-5106
▁66	-5107
▁8.	-5108
audi	-5109
izer	-5110
unei	-5111
▁15%	-5112
▁hal	-5113
state	-5114
▁debt	-5115
▁avoid	-5116
▁clean	-5117
▁click	-5118
▁crime	-5119
▁limit	-5120
▁offal	-5121
▁Update	-5122
▁hotels	-5123
National	-5124
iversary	-5125
▁equival	-5126
▁mineral	-5127
▁minutes	-5128
ittsburgh	-5129
▁Decision	-5130
▁function	-5131
▁minority	-5132
raceutical	-5133
▁Countries	-5134
▁expertise	-5135
▁73	-5136
▁CO	-5137
iami	-5138
othe	-5139
▁Lou	-5140
▁tru	-5141
▁war	-5142
ained	-5143
▁1996	-5144
▁cold	-5145
▁crab	-5146
ruptcy	-5147
▁stock	-5148
▁Winnipeg	-5149
▁practice	-5150
▁2007-10-2	-5151
▁presented	-5152
▁Employment	-5153
▁Federation	-5154
▁exhibitors	-5155
▁guidelines	-5156
▁Engineering	-5157
▁instruments	-5158
Is	-5159
▁CAR	-5160
▁Mid	-5161
▁him	-5162
▁ste	-5163
▁sun	-5164
Today	-5165
oples	-5166
ecific	-5167
▁Maple	-5168
▁snack	-5169
ampaign	-5170
▁snacks	-5171
▁termin	-5172
istribut	-5173
▁authorized	-5174
▁Distribution	-5175
47	-5176
son	-5177
▁3,	-5178
▁31	-5179
▁gl	-5180
▁ir	-5181
▁Ara	-5182
▁War	-5183
China	-5184
endix	-5185
ental	-5186
ospit	-5187
▁Toll	-5188
▁fail	-5189
▁Saint	-5190
▁Small	-5191
▁bakery	-5192
▁circum	-5193
▁juices	-5194
▁middle	-5195
▁Require	-5196
▁initial	-5197
▁numerous	-5198
▁students	-5199
▁2006-06-2	-5200
▁operation	-5201
▁Manufactur	-5202
▁Population	-5203
▁recommended	-5204
▁Introduction	-5205
▁characteristics	-5206
AE	-5207
CO	-5208
ón	-5209
ION	-5210
ete	-5211
▁Des	-5212
▁Sel	-5213
▁rev	-5214
▁Slov	-5215
essert	-5216
▁(204)	-5217
▁Atlas	-5218
▁Their	-5219
▁booth	-5220
▁remed	-5221
▁Notice	-5222
▁exclus	-5223
▁proper	-5224
▁Payment	-5225
▁brought	-5226
▁Barbados	-5227
▁retailer	-5228
▁purchased	-5229
▁innovative	-5230
81	-5231
BC	-5232
En	-5233
Con	-5234
▁(1	-5235
▁Li	-5236
▁Our	-5237
▁dam	-5238
▁lot	-5239
inery	-5240
otive	-5241
▁Head	-5242
▁sens	-5243
ounsel	-5244
▁comes	-5245
▁Associ	-5246
▁agents	-5247
▁climate	-5248
▁compris	-5249
▁changing	-5250
▁launched	-5251
▁produces	-5252
▁expressed	-5253
▁reporting	-5254
▁Legislation	-5255
▁understanding	-5256
-3)	-5257
/19	-5258
4-9	-5259
▁46	-5260
olun	-5261
▁CHR	-5262
▁gas	-5263
▁tob	-5264
▁Expo	-5265
▁List	-5266
▁paid	-5267
▁2006.	-5268
▁fully	-5269
▁Bovine	-5270
▁cooked	-5271
▁credit	-5272
▁temper	-5273
▁Russian	-5274
▁counter	-5275
▁Virginia	-5276
▁2008-03-2	-5277
▁varieties	-5278
▁respondents	-5279
0)	-5280
46	-5281
8%	-5282
ij	-5283
▁$7	-5284
aste	-5285
▁opt	-5286
▁ris	-5287
▁tim	-5288
berry	-5289
ouses	-5290
▁hect	-5291
▁uses	-5292
erated	-5293
▁Miami	-5294
▁occup	-5295
iscuits	-5296
▁Scient	-5297
▁cruise	-5298
▁points	-5299
▁voyeur	-5300
▁Limited	-5301
▁Mission	-5302
▁tobacco	-5303
ibilities	-5304
▁2007-08-2	-5305
▁astronomy	-5306
▁popularity	-5307
▁Consumption	-5308
▁discriminatory	-5309
TOR	-5310
aces	-5311
▁fees	-5312
▁rose	-5313
▁2002.	-5314
▁Enter	-5315
▁Joint	-5316
▁rural	-5317
▁Coffee	-5318
▁Harmon	-5319
▁Number	-5320
▁People	-5321
▁allows	-5322
▁liquid	-5323
▁Announce	-5324
▁merchand	-5325
▁response	-5326
▁2007-06-1	-5327
▁resolution	-5328
Add	-5329
Top	-5330
▁5,	-5331
▁PA	-5332
▁my	-5333
ingu	-5334
lean	-5335
oria	-5336
▁300	-5337
▁nam	-5338
cious	-5339
▁Cond	-5340
▁MacK	-5341
▁cuts	-5342
reland	-5343
▁Techn	-5344
▁labor	-5345
▁names	-5346
▁Brunei	-5347
▁courts	-5348
▁clearly	-5349
▁prepare	-5350
▁systemic	-5351
▁commodity	-5352
▁mentioned	-5353
▁authorities	-5354
EA	-5355
Reg	-5356
lin	-5357
nel	-5358
▁3%	-5359
▁4,	-5360
▁br	-5361
cert	-5362
iana	-5363
part	-5364
▁Mer	-5365
▁Mig	-5366
agers	-5367
▁Tony	-5368
▁2006"	-5369
▁Legal	-5370
▁Three	-5371
▁buyer	-5372
▁holds	-5373
▁Contin	-5374
▁focused	-5375
▁history	-5376
▁willing	-5377
itiveness	-5378
▁Children	-5379
▁accuracy	-5380
▁dominated	-5381
▁remaining	-5382
governmental	-5383
▁Preparedness	-5384
▁expenditures	-5385
▁stakeholders	-5386
▁76	-5387
ican	-5388
icro	-5389
oral	-5390
osph	-5391
urum	-5392
▁Oil	-5393
▁mot	-5394
▁ult	-5395
mented	-5396
▁NAFTA	-5397
▁owned	-5398
▁sampl	-5399
respond	-5400
▁Change	-5401
▁Credit	-5402
▁agency	-5403
▁option	-5404
istrative	-5405
▁Property	-5406
▁ensuring	-5407
▁completed	-5408
▁Pittsburgh	-5409
▁retirement	-5410
ubs	-5411
▁6,	-5412
▁If	-5413
OCIA	-5414
iant	-5415
lier	-5416
onia	-5417
▁See	-5418
▁CAHR	-5419
▁Name	-5420
▁cuis	-5421
encing	-5422
▁MEXIC	-5423
▁doing	-5424
▁cereal	-5425
▁manner	-5426
▁Portugal	-5427
▁officials	-5428
Agriculture	-5429
▁encouraged	-5430
▁advertising	-5431
▁expeditions	-5432
▁genetically	-5433
▁Contribution	-5434
▁concentrated	-5435
▁jurisdiction	-5436
-09	-5437
PAN	-5438
dec	-5439
1-30	-5440
atab	-5441
▁$10	-5442
▁125	-5443
▁Sug	-5444
▁abs	-5445
cohol	-5446
rence	-5447
▁Hung	-5448
▁blue	-5449
▁aware	-5450
▁money	-5451
▁ports	-5452
▁ships	-5453
▁spent	-5454
▁Origin	-5455
▁Trends	-5456
▁affect	-5457
▁simply	-5458
▁Carling	-5459
▁figures	-5460
▁incomes	-5461
▁lifesty	-5462
including	-5463
▁Festival	-5464
▁Measures	-5465
▁locations	-5466
▁electronic	-5467
▁expenditure	-5468
▁Requirements	-5469
▁establishments	-5470
95	-5471
ns	-5472
rd	-5473
.00	-5474
cer	-5475
lam	-5476
Germ	-5477
burg	-5478
live	-5479
ishes	-5480
▁(011	-5481
▁copy	-5482
▁soup	-5483
▁Label	-5484
▁Purch	-5485
▁cater	-5486
chedule	-5487
▁barley	-5488
▁mostly	-5489
standing	-5490
▁Clement	-5491
▁Results	-5492
▁diverse	-5493
▁venture	-5494
▁Military	-5495
▁elements	-5496
▁Documents	-5497
▁interview	-5498
▁facilitate	-5499
▁participate	-5500
▁promotional	-5501
SA	-5502
ye	-5503
▁z	-5504
One	-5505
usp	-5506
▁So	-5507
▁But	-5508
beans	-5509
othec	-5510
▁Arab	-5511
▁Bang	-5512
▁drink	-5513
▁Provide	-5514
▁details	-5515
▁protein	-5516
▁seeking	-5517
▁workers	-5518
▁strength	-5519
▁Processed	-5520
▁Represent	-5521
▁exception	-5522
▁healthier	-5523
▁permitted	-5524
▁typically	-5525
▁Foundation	-5526
▁Restaurant	-5527
▁principles	-5528
42	-5529
IP	-5530
-07	-5531
▁IM	-5532
isco	-5533
▁cell	-5534
▁left	-5535
itives	-5536
▁Final	-5537
▁Georg	-5538
▁shown	-5539
iquette	-5540
omestic	-5541
▁Alaska	-5542
▁reduct	-5543
▁conflic	-5544
▁defence	-5545
▁relative	-5546
▁expensive	-5547
▁attractive	-5548
▁innovation	-5549
▁reputation	-5550
$2	-5551
hl	-5552
400	-5553
aut	-5554
▁53	-5555
▁Go	-5556
ored	-5557
▁Cod	-5558
▁Saf	-5559
foods	-5560
riend	-5561
uable	-5562
▁Corp	-5563
▁nuts	-5564
▁rule	-5565
▁sent	-5566
ateway	-5567
igence	-5568
market	-5569
▁maple	-5570
akistan	-5571
iversities	-5572
▁2007-01-0	-5573
▁committed	-5574
▁commitment	-5575
-11	-5576
▁9.	-5577
▁HS	-5578
▁ut	-5579
chin	-5580
irds	-5581
lege	-5582
ture	-5583
yond	-5584
▁Cop	-5585
▁lay	-5586
▁why	-5587
amber	-5588
ander	-5589
ridge	-5590
▁drop	-5591
action	-5592
ercise	-5593
illing	-5594
▁Forum	-5595
▁valid	-5596
▁beyond	-5597
▁caused	-5598
▁litres	-5599
▁Control	-5600
▁History	-5601
▁Insight	-5602
▁appears	-5603
▁correct	-5604
▁dessert	-5605
▁entered	-5606
▁Document	-5607
▁Francoph	-5608
▁cultural	-5609
▁currency	-5610
▁2006-02-1	-5611
▁2006-06-1	-5612
71	-5613
?"	-5614
ais	-5615
ila	-5616
rus	-5617
▁4%	-5618
aves	-5619
eden	-5620
osur	-5621
▁fee	-5622
▁Vari	-5623
▁Wild	-5624
▁aims	-5625
▁toll	-5626
▁Saudi	-5627
▁shops	-5628
quality	-5629
▁MacKay	-5630
▁extrem	-5631
▁Changes	-5632
▁Ireland	-5633
▁Supreme	-5634
▁Interest	-5635
▁Vegetable	-5636
▁component	-5637
▁equivalent	-5638
▁statistics	-5639
▁destination	-5640
▁implemented	-5641
▁Commissioners	-5642
acc	-5643
nes	-5644
book	-5645
▁(1)	-5646
▁70%	-5647
▁80%	-5648
▁Cre	-5649
▁Ham	-5650
▁arg	-5651
itled	-5652
▁Wine	-5653
▁idea	-5654
▁trav	-5655
▁Hotel	-5656
▁Index	-5657
▁Louis	-5658
▁honey	-5659
process	-5660
▁Wholes	-5661
arantine	-5662
▁Meeting	-5663
▁covered	-5664
▁compiled	-5665
▁2008-02-1	-5666
▁Producers	-5667
▁efficient	-5668
▁advantages	-5669
▁applicable	-5670
▁aquaculture	-5671
▁contributed	-5672
▁educational	-5673
▁developments	-5674
UM	-5675
raw	-5676
AAFC	-5677
Most	-5678
▁60%	-5679
▁Eth	-5680
▁NOT	-5681
After	-5682
▁Brok	-5683
▁Feed	-5684
▁baby	-5685
▁says	-5686
▁soon	-5687
▁Again	-5688
▁Floor	-5689
▁Where	-5690
▁catch	-5691
ATIONAL	-5692
eremony	-5693
▁attend	-5694
▁contro	-5695
▁format	-5696
▁useful	-5697
▁demands	-5698
ventional	-5699
▁Launches	-5700
▁combined	-5701
▁facility	-5702
▁families	-5703
▁referred	-5704
▁turnover	-5705
▁2008-01-2	-5706
▁Beverages	-5707
▁specialized	-5708
▁availability	-5709
▁comprehensive	-5710
GM	-5711
-18	-5712
bed	-5713
ilt	-5714
omb	-5715
uit	-5716
▁OJ	-5717
face	-5718
repr	-5719
▁Art	-5720
▁aid	-5721
ender	-5722
izers	-5723
lared	-5724
ushro	-5725
▁Time	-5726
▁fert	-5727
▁resol	-5728
▁solid	-5729
Imports	-5730
▁Arabia	-5731
▁divers	-5732
▁Members	-5733
▁advance	-5734
▁replace	-5735
▁2008-02-0	-5736
▁condition	-5737
▁restricted	-5738
▁Institutional	-5739
48	-5740
kn	-5741
IAL	-5742
TER	-5743
dul	-5744
rel	-5745
▁Ur	-5746
Conn	-5747
rent	-5748
▁Nig	-5749
▁ear	-5750
▁try	-5751
Mexic	-5752
apter	-5753
▁1995	-5754
▁Dutch	-5755
▁Quest	-5756
▁Danish	-5757
▁Income	-5758
▁canola	-5759
▁ranked	-5760
▁Lobster	-5761
▁mission	-5762
▁science	-5763
▁improved	-5764
▁indicate	-5765
▁resulted	-5766
▁Insurance	-5767
▁Regulation	-5768
▁correspond	-5769
▁Consultations	-5770
2.	-5771
mx	-5772
arb	-5773
▁Di	-5774
▁Ju	-5775
aker	-5776
berg	-5777
ctic	-5778
fast	-5779
▁14,	-5780
▁250	-5781
▁UAE	-5782
iques	-5783
▁CHRA	-5784
▁Laws	-5785
▁Maur	-5786
etting	-5787
overty	-5788
▁Dried	-5789
▁Earth	-5790
▁Forms	-5791
▁Visit	-5792
▁draft	-5793
▁2000."	-5794
▁Marine	-5795
▁letter	-5796
▁orders	-5797
▁compete	-5798
▁building	-5799
▁consists	-5800
▁independ	-5801
▁2008-04-0	-5802
▁Framework	-5803
▁extremely	-5804
▁intention	-5805
▁sufficient	-5806
▁Aquaculture	-5807
▁consultations	-5808
ta	-5809
▁i	-5810
300	-5811
let	-5812
oot	-5813
uri	-5814
ilot	-5815
onie	-5816
ydro	-5817
▁150	-5818
▁Ice	-5819
▁Leb	-5820
▁Sch	-5821
efilm	-5822
▁"(1)	-5823
▁Mark	-5824
▁jobs	-5825
▁vary	-5826
arters	-5827
omatic	-5828
▁adequ	-5829
▁dedic	-5830
▁quite	-5831
▁shelf	-5832
▁Employ	-5833
▁Poland	-5834
▁follows	-5835
▁channels	-5836
▁claimant	-5837
▁meetings	-5838
▁2006-08-2	-5839
▁2007-11-2	-5840
▁protected	-5841
▁providers	-5842
▁supported	-5843
▁Philippine	-5844
▁attributed	-5845
▁collection	-5846
▁observatory	-5847
▁presentation	-5848
▁representation	-5849
HS	-5850
Of	-5851
ews	-5852
Agri	-5853
cean	-5854
▁Soy	-5855
▁der	-5856
ierre	-5857
ulses	-5858
▁Mult	-5859
▁rich	-5860
izance	-5861
▁Simon	-5862
▁raise	-5863
▁Aliment	-5864
▁Between	-5865
▁Respons	-5866
▁regular	-5867
▁society	-5868
▁Proposed	-5869
▁instruct	-5870
▁Authority	-5871
▁encourage	-5872
▁functions	-5873
▁Anniversary	-5874
▁association	-5875
▁enforcement	-5876
▁consideration	-5877
Mr	-5878
bi	-5879
ARD	-5880
PEC	-5881
▁2%	-5882
▁96	-5883
olit	-5884
▁INR	-5885
▁rad	-5886
apeut	-5887
etary	-5888
quiry	-5889
▁Rich	-5890
▁That	-5891
▁goal	-5892
▁kind	-5893
ectors	-5894
making	-5895
ruguay	-5896
▁accom	-5897
▁gives	-5898
▁older	-5899
▁favour	-5900
▁(972-3)	-5901
▁Perform	-5902
▁Telefilm	-5903
▁overview	-5904
▁pressure	-5905
▁highlight	-5906
▁disposable	-5907
▁alternative	-5908
bro	-5909
elt	-5910
sec	-5911
▁62	-5912
ithu	-5913
opes	-5914
wood	-5915
▁Ste	-5916
▁cou	-5917
Under	-5918
oline	-5919
oring	-5920
▁answ	-5921
▁desp	-5922
▁easy	-5923
▁ever	-5924
▁west	-5925
During	-5926
▁(202)	-5927
▁pages	-5928
▁words	-5929
reprene	-5930
▁Tariff	-5931
▁amounts	-5932
▁gourmet	-5933
▁Pakistan	-5934
▁segments	-5935
▁valuable	-5936
▁ingredient	-5937
▁monitoring	-5938
NA	-5939
UT	-5940
Atl	-5941
Rec	-5942
▁91	-5943
TIVE	-5944
cing	-5945
ideo	-5946
illa	-5947
iors	-5948
ukon	-5949
▁Its	-5950
▁cat	-5951
▁pan	-5952
▁saw	-5953
Trade	-5954
omics	-5955
▁Thom	-5956
▁Unit	-5957
▁deep	-5958
▁tool	-5959
ensing	-5960
▁Amend	-5961
▁Chair	-5962
▁Labor	-5963
isation	-5964
▁opened	-5965
▁reveal	-5966
▁Fishing	-5967
▁despite	-5968
▁ongoing	-5969
▁quarter	-5970
▁spirits	-5971
▁Appendix	-5972
▁operates	-5973
▁separate	-5974
▁2006-12-2	-5975
▁Implement	-5976
▁submitted	-5977
▁worldwide	-5978
▁conventional	-5979
IB	-5980
-01	-5981
ERG	-5982
ado	-5983
off	-5984
ray	-5985
▁69	-5986
▁8,	-5987
ICOM	-5988
ault	-5989
mond	-5990
▁pet	-5991
▁tom	-5992
akers	-5993
▁Miss	-5994
inseng	-5995
▁Claim	-5996
▁Phone	-5997
▁Tunis	-5998
▁media	-5999
▁whose	-6000
▁yield	-6001
▁During	-6002
▁MARKET	-6003
▁School	-6004
▁moving	-6005
▁pepper	-6006
▁strict	-6007
▁victim	-6008
▁gaining	-6009
▁meaning	-6010
▁subsidi	-6011
▁accepted	-6012
▁discover	-6013
▁patterns	-6014
▁progress	-6015
▁additives	-6016
▁depending	-6017
▁discussed	-6018
▁extensive	-6019
▁financing	-6020
▁machinery	-6021
▁selection	-6022
▁instrument	-6023
▁quantities	-6024
▁unemployment	-6025
▁Manufacturers	-6026
7)	-6027
ME	-6028
600	-6029
avi	-6030
icy	-6031
ulf	-6032
▁7,	-6033
▁AF	-6034
ired	-6035
quis	-6036
▁upd	-6037
owned	-6038
▁Curr	-6039
▁Groc	-6040
▁Real	-6041
▁Type	-6042
▁feel	-6043
▁host	-6044
▁Brief	-6045
▁check	-6046
▁spend	-6047
▁works	-6048
▁shares	-6049
▁waters	-6050
▁actions	-6051
▁shelled	-6052
▁entitled	-6053
▁southern	-6054
▁secondary	-6055
▁supplement	-6056
▁Territories	-6057
▁partnerships	-6058
▁documentation	-6059
Ph	-6060
WB	-6061
eu	-6062
-14	-6063
eff	-6064
men	-6065
▁AR	-6066
▁My	-6067
ynam	-6068
▁nor	-6069
▁opp	-6070
opped	-6071
ously	-6072
regon	-6073
▁CFIA	-6074
▁Hand	-6075
▁prob	-6076
advant	-6077
▁Event	-6078
▁black	-6079
▁owner	-6080
erapeut	-6081
▁Christ	-6082
▁Forest	-6083
▁histor	-6084
▁served	-6085
▁sexual	-6086
▁Centres	-6087
▁pricing	-6088
▁articles	-6089
▁declined	-6090
▁recorded	-6091
▁2006-01-2	-6092
▁Labelling	-6093
▁framework	-6094
▁proposals	-6095
▁initiative	-6096
▁partnership	-6097
▁Francophonie	-6098
DS	-6099
▁u	-6100
-00	-6101
00)	-6102
alm	-6103
bat	-6104
lab	-6105
▁$8	-6106
▁Ni	-6107
alfa	-6108
case	-6109
izza	-6110
time	-6111
▁10,	-6112
▁24,	-6113
▁Lib	-6114
▁emb	-6115
▁pig	-6116
▁tal	-6117
lades	-6118
▁Chic	-6119
▁Next	-6120
▁Term	-6121
▁conv	-6122
▁opin	-6123
▁seek	-6124
Connor	-6125
Import	-6126
tation	-6127
▁CANAD	-6128
▁Carol	-6129
▁radio	-6130
ificate	-6131
▁Strahl	-6132
▁incent	-6133
▁Uruguay	-6134
▁dealing	-6135
▁licence	-6136
▁Imported	-6137
▁advanced	-6138
▁critical	-6139
▁hypothec	-6140
▁physical	-6141
▁2008-03-0	-6142
▁settlement	-6143
▁researchers	-6144
▁investigation	-6145
31	-6146
04)	-6147
ald	-6148
enz	-6149
ota	-6150
▁79	-6151
▁TR	-6152
adem	-6153
cont	-6154
egal	-6155
like	-6156
ulse	-6157
uter	-6158
▁23,	-6159
▁Nes	-6160
europ	-6161
icted	-6162
seeds	-6163
▁Four	-6164
▁Paul	-6165
▁adap	-6166
▁cand	-6167
▁poll	-6168
ottled	-6169
▁759-7	-6170
▁Great	-6171
▁Place	-6172
▁hotel	-6173
▁volum	-6174
▁Second	-6175
▁dishes	-6176
▁profit	-6177
declared	-6178
▁Pension	-6179
▁cuisine	-6180
▁involve	-6181
▁package	-6182
▁Contract	-6183
▁creation	-6184
▁internal	-6185
▁2006-01-1	-6186
▁challenge	-6187
▁guarantee	-6188
▁promoting	-6189
▁effectively	-6190
International	-6191
8-6	-6192
amb	-6193
oma	-6194
pes	-6195
▁74	-6196
▁By	-6197
Comp	-6198
Fish	-6199
aire	-6200
iple	-6201
réal	-6202
▁(70	-6203
▁12%	-6204
▁Gal	-6205
▁hab	-6206
▁sav	-6207
lying	-6208
▁fine	-6209
▁peas	-6210
▁2007,	-6211
▁Rules	-6212
▁Sound	-6213
▁antic	-6214
▁pharm	-6215
▁scope	-6216
▁Online	-6217
▁Recogn	-6218
▁Reform	-6219
▁fiscal	-6220
ilingual	-6221
▁Against	-6222
▁England	-6223
▁applies	-6224
▁peoples	-6225
▁officers	-6226
▁Additional	-6227
▁Registration	-6228
▁harmonization	-6229
59	-6230
7%	-6231
Ab	-6232
gr	-6233
Due	-6234
Off	-6235
▁52	-6236
-55)	-6237
down	-6238
ella	-6239
▁Don	-6240
Table	-6241
eding	-6242
ights	-6243
iliar	-6244
orary	-6245
sized	-6246
▁Cere	-6247
▁anti	-6248
▁doub	-6249
▁rail	-6250
▁safe	-6251
▁wood	-6252
ladesh	-6253
▁Level	-6254
▁Yukon	-6255
▁medic	-6256
▁phone	-6257
▁acquir	-6258
▁assign	-6259
▁fourth	-6260
▁potato	-6261
▁struct	-6262
ervation	-6263
▁Indians	-6264
▁anticip	-6265
▁lentils	-6266
▁pension	-6267
▁Victoria	-6268
▁handling	-6269
▁Undeclared	-6270
▁universities	-6271
IG	-6272
dn	-6273
ea	-6274
yn	-6275
Ann	-6276
ody	-6277
urd	-6278
▁9,	-6279
back	-6280
emor	-6281
rack	-6282
▁Alg	-6283
▁Ast	-6284
▁Enh	-6285
▁Pra	-6286
▁spe	-6287
irmed	-6288
▁Into	-6289
▁Mary	-6290
▁alle	-6291
▁bott	-6292
▁earn	-6293
ecause	-6294
ensity	-6295
flower	-6296
mental	-6297
▁(800)	-6298
▁2001.	-6299
▁Chuck	-6300
▁Renew	-6301
Natural	-6302
vincial	-6303
▁Follow	-6304
▁formal	-6305
▁franch	-6306
▁giving	-6307
▁output	-6308
▁tastes	-6309
▁William	-6310
▁closely	-6311
▁volumes	-6312
operative	-6313
▁Archives	-6314
▁Ceremony	-6315
▁Historic	-6316
▁Lawrence	-6317
▁Montréal	-6318
▁Standard	-6319
▁2008-04-1	-6320
▁2008-06-1	-6321
▁procedure	-6322
▁determined	-6323
▁description	-6324
▁establishing	-6325
Sh	-6326
ox	-6327
-08	-6328
1.2	-6329
ike	-6330
ipl	-6331
▁48	-6332
▁Ha	-6333
Also	-6334
ache	-6335
agaz	-6336
anta	-6337
▁ASS	-6338
▁Bak	-6339
▁Ber	-6340
▁say	-6341
erves	-6342
fully	-6343
▁Band	-6344
▁Corn	-6345
▁Gree	-6346
▁Pric	-6347
agnost	-6348
argest	-6349
ellect	-6350
▁Added	-6351
▁Chall	-6352
▁Swiss	-6353
ulation	-6354
▁Andean	-6355
▁images	-6356
▁refrig	-6357
▁(52-55)	-6358
▁Through	-6359
▁Tourism	-6360
▁release	-6361
▁weather	-6362
ellectual	-6363
▁Domestic	-6364
▁collabor	-6365
▁constant	-6366
▁remained	-6367
▁returned	-6368
▁selected	-6369
▁Livestock	-6370
▁inflation	-6371
▁Backgrounder	-6372
▁Participation	-6373
▁circumstances	-6374
▁establishment	-6375
.[	-6376
IO	-6377
Or	-6378
PO	-6379
ég	-6380
(2)	-6381
bon	-6382
▁54	-6383
▁8%	-6384
otka	-6385
zech	-6386
▁10.	-6387
▁Jim	-6388
▁cel	-6389
▁sky	-6390
▁Both	-6391
▁Only	-6392
▁Pers	-6393
▁file	-6394
▁Pract	-6395
▁Round	-6396
▁Young	-6397
▁funds	-6398
▁salad	-6399
actions	-6400
▁Nootka	-6401
▁Survey	-6402
▁calcul	-6403
▁former	-6404
▁sauces	-6405
▁widely	-6406
▁Chicago	-6407
▁Farmers	-6408
▁experts	-6409
▁greatly	-6410
▁Southern	-6411
▁emerging	-6412
▁soybeans	-6413
▁2007-04-0	-6414
▁conference	-6415
▁preferences	-6416
ho	-6417
-13	-6418
▁89	-6419
3-30	-6420
hood	-6421
iced	-6422
ular	-6423
▁EDC	-6424
▁ill	-6425
ordon	-6426
otton	-6427
prise	-6428
style	-6429
▁Size	-6430
asting	-6431
ustain	-6432
▁1999,	-6433
▁Class	-6434
▁Integ	-6435
▁Moroc	-6436
▁defic	-6437
▁recip	-6438
▁Includ	-6439
▁Ingred	-6440
▁Miguel	-6441
▁raised	-6442
▁select	-6443
Atlantic	-6444
▁2008-07	-6445
▁Italian	-6446
▁opening	-6447
▁trustee	-6448
▁Mercosur	-6449
▁millions	-6450
▁statutes	-6451
▁committee	-6452
▁wholesale	-6453
▁Distributors	-6454
▁certificates	-6455
▁introduction	-6456
/2	-6457
gi	-6458
▁«	-6459
TUR	-6460
ham	-6461
ira	-6462
rew	-6463
▁7%	-6464
▁FR	-6465
▁LA	-6466
▁NY	-6467
▁UN	-6468
Many	-6469
fort	-6470
rams	-6471
xico	-6472
▁Egg	-6473
▁HRI	-6474
▁Nam	-6475
falfa	-6476
▁GMOs	-6477
▁flav	-6478
▁vers	-6479
ublish	-6480
▁Lithu	-6481
▁Medic	-6482
▁Nesoi	-6483
▁going	-6484
▁journ	-6485
Problem	-6486
riendly	-6487
urement	-6488
▁(2005)	-6489
▁Figure	-6490
▁Madrid	-6491
▁Muslim	-6492
▁México	-6493
▁Robert	-6494
▁Sweden	-6495
▁CARICOM	-6496
▁channel	-6497
▁maximum	-6498
▁started	-6499
▁relation	-6500
▁steadily	-6501
▁2006-06-0	-6502
▁Strategic	-6503
▁disadvant	-6504
▁estimates	-6505
▁improving	-6506
▁nutrition	-6507
▁projected	-6508
▁accessible	-6509
▁discussion	-6510
▁astronomers	-6511
▁sustainable	-6512
▁internationally	-6513
52	-6514
FI	-6515
MAR	-6516
rey	-6517
▁51	-6518
▁Ec	-6519
orge	-6520
rian	-6521
roph	-6522
▁$20	-6523
▁1.4	-6524
▁Gra	-6525
▁gal	-6526
▁let	-6527
▁yen	-6528
arian	-6529
ommod	-6530
▁Rail	-6531
▁virt	-6532
isting	-6533
itting	-6534
▁Clean	-6535
▁Cross	-6536
▁Grand	-6537
▁Leban	-6538
▁dress	-6539
Because	-6540
ictions	-6541
▁afford	-6542
▁choice	-6543
▁invent	-6544
▁summer	-6545
ophistic	-6546
▁Michael	-6547
▁Monitor	-6548
▁dropped	-6549
▁fillets	-6550
▁finding	-6551
elligence	-6552
▁Comments	-6553
▁Provides	-6554
▁Standing	-6555
▁electric	-6556
▁features	-6557
▁2008-01-1	-6558
▁solutions	-6559
▁competitiveness	-6560
!"	-6561
Am	-6562
CS	-6563
EB	-6564
EY	-6565
HA	-6566
uer	-6567
▁82	-6568
▁gr	-6569
arms	-6570
asts	-6571
orts	-6572
puts	-6573
reed	-6574
▁Dan	-6575
▁Rob	-6576
▁fif	-6577
beral	-6578
eline	-6579
ratic	-6580
▁Best	-6581
▁Drin	-6582
▁Nest	-6583
▁merg	-6584
Israel	-6585
▁Staff	-6586
▁boost	-6587
▁filed	-6588
▁perce	-6589
▁truck	-6590
▁Stores	-6591
▁Valley	-6592
▁bodies	-6593
▁conver	-6594
▁passed	-6595
▁Fishery	-6596
▁mandate	-6597
▁poverty	-6598
▁Contents	-6599
▁Revenues	-6600
▁expanded	-6601
▁2008-06-0	-6602
▁Importers	-6603
▁terrorism	-6604
▁warehouse	-6605
▁distributed	-6606
▁enterprises	-6607
▁investments	-6608
▁terminology	-6609
▁Institutions	-6610
▁commissioner	-6611
▁Organizations	-6612
56	-6613
gl	-6614
-15	-6615
ogs	-6616
sex	-6617
▁64	-6618
Cont	-6619
ahar	-6620
amer	-6621
argo	-6622
care	-6623
ifax	-6624
▁1."	-6625
▁400	-6626
▁Bas	-6627
▁box	-6628
ensus	-6629
ruits	-6630
▁sour	-6631
letter	-6632
▁asked	-6633
▁drugs	-6634
▁eight	-6635
aration	-6636
mission	-6637
reening	-6638
vesters	-6639
▁Arctic	-6640
▁Oregon	-6641
▁College	-6642
▁Contain	-6643
▁Islands	-6644
▁amended	-6645
▁conclud	-6646
▁serving	-6647
▁Carolina	-6648
▁biscuits	-6649
▁emphasis	-6650
▁priority	-6651
▁vitamins	-6652
▁2006-07-2	-6653
▁diversity	-6654
▁reduction	-6655
▁sophistic	-6656
▁Bankruptcy	-6657
▁Processing	-6658
▁contribute	-6659
▁Euromonitor	-6660
▁differences	-6661
▁exploration	-6662
LA	-6663
kg	-6664
-19	-6665
▁6%	-6666
▁Aw	-6667
▁CC	-6668
▁Ok	-6669
▁Rd	-6670
Stat	-6671
ford	-6672
ogue	-6673
▁12,	-6674
▁Def	-6675
▁Met	-6676
▁SAR	-6677
▁map	-6678
▁83.3	-6679
▁mail	-6680
▁util	-6681
aspina	-6682
▁Sugar	-6683
▁remov	-6684
▁seven	-6685
Between	-6686
ounters	-6687
▁Corpor	-6688
▁Excise	-6689
▁adjust	-6690
▁quotas	-6691
▁smoked	-6692
▁Hungary	-6693
▁coordin	-6694
▁fastest	-6695
▁Welcomes	-6696
▁allowing	-6697
▁hectares	-6698
▁principal	-6699
▁Statistical	-6700
▁improvement	-6701
▁marketplace	-6702
▁capabilities	-6703
▁compensation	-6704
▁negotiations	-6705
▁Pharmaceutical	-6706
▁identification	-6707
92	-6708
CH	-6709
fr	-6710
800	-6711
And	-6712
Int	-6713
▁93	-6714
2-2)	-6715
ERGY	-6716
▁Coc	-6717
▁cas	-6718
▁gar	-6719
orers	-6720
scale	-6721
store	-6722
▁Crop	-6723
▁Info	-6724
▁born	-6725
▁clin	-6726
stream	-6727
▁(514)	-6728
▁Czech	-6729
▁adopt	-6730
▁evalu	-6731
▁navig	-6732
▁ocean	-6733
▁somet	-6734
▁stuff	-6735
▁budget	-6736
▁farmed	-6737
▁slowly	-6738
▁square	-6739
ushrooms	-6740
▁advised	-6741
▁enhance	-6742
▁records	-6743
lications	-6744
▁targeted	-6745
▁Brazilian	-6746
▁Chocolate	-6747
▁investors	-6748
▁Disclosure	-6749
▁previously	-6750
▁Francophone	-6751
▁territorial	-6752
bu	-6753
eh	-6754
aug	-6755
▁1%	-6756
▁lo	-6757
CFIA	-6758
ENTS	-6759
usda	-6760
▁...	-6761
▁11,	-6762
▁Tob	-6763
▁fax	-6764
▁1994	-6765
▁Bern	-6766
▁bill	-6767
▁book	-6768
▁flex	-6769
▁susp	-6770
econom	-6771
everal	-6772
itness	-6773
▁(519)	-6774
▁Drive	-6775
▁Paper	-6776
▁Pasta	-6777
▁Sites	-6778
▁crude	-6779
▁dynam	-6780
▁reven	-6781
▁Gordon	-6782
▁Spring	-6783
▁Winter	-6784
▁behind	-6785
▁fertil	-6786
▁hospit	-6787
▁limits	-6788
▁Another	-6789
▁Certain	-6790
▁Correct	-6791
▁divided	-6792
▁Benefits	-6793
▁amounted	-6794
▁discount	-6795
▁incorpor	-6796
▁movement	-6797
inspection	-6798
▁Americans	-6799
▁liability	-6800
▁statement	-6801
▁Resolution	-6802
▁considering	-6803
▁necessarily	-6804
▁applications	-6805
ei	-6806
UST	-6807
alo	-6808
edc	-6809
oke	-6810
▁63	-6811
loss	-6812
ston	-6813
umin	-6814
▁180	-6815
▁Fra	-6816
▁IND	-6817
Based	-6818
Spain	-6819
aving	-6820
olden	-6821
owers	-6822
▁When	-6823
▁nood	-6824
▁team	-6825
ipping	-6826
ustace	-6827
▁(34-9	-6828
▁Camer	-6829
▁equal	-6830
▁immov	-6831
▁peace	-6832
▁Senate	-6833
▁excess	-6834
▁latest	-6835
▁Chamber	-6836
▁Georgia	-6837
▁confirm	-6838
▁Consular	-6839
▁Forecast	-6840
▁controls	-6841
▁diseases	-6842
▁distance	-6843
▁offences	-6844
▁appointed	-6845
▁Electronic	-6846
▁Excellence	-6847
▁frequently	-6848
▁supporting	-6849
▁Supermarkets	-6850
▁Parliamentary	-6851
▁collaboration	-6852
▁administration	-6853
usc	-6854
arch	-6855
cons	-6856
▁CWB	-6857
▁fav	-6858
aught	-6859
itime	-6860
▁Live	-6861
▁Note	-6862
▁vast	-6863
▁Links	-6864
▁goals	-6865
▁trace	-6866
ackaged	-6867
atabase	-6868
▁cultiv	-6869
Moreover	-6870
▁Forward	-6871
▁Halifax	-6872
▁Portion	-6873
▁Sustain	-6874
▁adopted	-6875
▁earlier	-6876
▁granted	-6877
▁leaders	-6878
▁locally	-6879
▁nations	-6880
▁reforms	-6881
▁Soldiers	-6882
▁accommod	-6883
▁bulletin	-6884
▁campaign	-6885
▁citizens	-6886
▁familiar	-6887
▁labeling	-6888
▁Promotion	-6889
▁sometimes	-6890
▁telephone	-6891
▁territory	-6892
▁maintained	-6893
▁nutraceutical	-6894
ST	-6895
Key	-6896
bit	-6897
loc	-6898
set	-6899
▁86	-6900
▁SA	-6901
emed	-6902
miss	-6903
omed	-6904
reci	-6905
rupo	-6906
▁$13	-6907
▁18,	-6908
▁930	-6909
▁Fil	-6910
▁Pet	-6911
▁ago	-6912
▁phr	-6913
ented	-6914
erior	-6915
known	-6916
▁Aviv	-6917
▁Gulf	-6918
▁Play	-6919
▁Prem	-6920
▁Rice	-6921
▁send	-6922
,000);	-6923
▁Funds	-6924
▁apple	-6925
▁brief	-6926
▁built	-6927
istered	-6928
▁helped	-6929
atically	-6930
idential	-6931
▁Senegal	-6932
▁aspects	-6933
▁coastal	-6934
▁deficit	-6935
▁holding	-6936
▁imposed	-6937
▁NATIONAL	-6938
▁achieved	-6939
▁managers	-6940
▁revenues	-6941
▁spectrum	-6942
▁Awareness	-6943
▁corporate	-6944
▁direction	-6945
▁neighbour	-6946
▁voyeurism	-6947
▁components	-6948
▁confidence	-6949
▁communication	-6950
QU	-6951
RC	-6952
tg	-6953
1.0	-6954
emp	-6955
gal	-6956
law	-6957
Once	-6958
▁(24	-6959
▁mir	-6960
anent	-6961
atics	-6962
ettes	-6963
inent	-6964
itrus	-6965
liers	-6966
▁Inst	-6967
▁Mack	-6968
Access	-6969
coming	-6970
rained	-6971
▁2005"	-6972
▁Islam	-6973
▁White	-6974
▁aimed	-6975
▁gross	-6976
▁semin	-6977
▁swine	-6978
english	-6979
ression	-6980
▁Ground	-6981
▁MEXICO	-6982
▁Volume	-6983
▁dining	-6984
▁herein	-6985
▁sample	-6986
▁secure	-6987
▁skills	-6988
▁ASSOCIA	-6989
▁Article	-6990
▁heavily	-6991
▁setting	-6992
▁surface	-6993
▁thereof	-6994
▁Schedule	-6995
▁adequate	-6996
▁carrying	-6997
▁conflict	-6998
Additional	-6999
▁membership	-7000
▁Ingredients	-7001
▁examination	-7002
▁publication	-7003
▁recognition	-7004
▁reliability	-7005
▁difficulties	-7006
▁recognizance	-7007
▁Communications	-7008
emb	-7009
hrs	-7010
mes	-7011
ref	-7012
▁"2	-7013
erty	-7014
▁20,	-7015
▁31,	-7016
▁Any	-7017
▁Pen	-7018
▁Sus	-7019
▁den	-7020
lines	-7021
▁Fire	-7022
▁Know	-7023
▁pick	-7024
▁snow	-7025
▁viol	-7026
arding	-7027
▁(716)	-7028
▁meant	-7029
▁olive	-7030
▁surro	-7031
General	-7032
ultural	-7033
▁intent	-7034
▁launch	-7035
▁steady	-7036
▁alcohol	-7037
▁charges	-7038
▁ginseng	-7039
▁District	-7040
▁Language	-7041
▁director	-7042
▁proposal	-7043
▁reducing	-7044
ifications	-7045
▁2007-11-1	-7046
▁Appointed	-7047
▁dedicated	-7048
▁Industries	-7049
▁assessment	-7050
▁techniques	-7051
▁ASSOCIATION	-7052
2-3	-7053
ATE	-7054
Man	-7055
cks	-7056
olv	-7057
osh	-7058
rep	-7059
▁FA	-7060
▁MA	-7061
▁NW	-7062
▁SE	-7063
▁SO	-7064
%)."	-7065
abet	-7066
haps	-7067
home	-7068
ixed	-7069
onds	-7070
phal	-7071
roll	-7072
seas	-7073
▁$15	-7074
▁ASE	-7075
▁Nun	-7076
▁exc	-7077
▁mis	-7078
acing	-7079
▁Clin	-7080
▁Date	-7081
Source	-7082
lusion	-7083
▁alloc	-7084
▁relig	-7085
▁units	-7086
assment	-7087
▁driven	-7088
▁easily	-7089
▁liable	-7090
▁somewh	-7091
▁transl	-7092
▁biggest	-7093
▁changed	-7094
▁Speaking	-7095
▁extended	-7096
▁Questions	-7097
▁breakfast	-7098
▁mediation	-7099
▁suggested	-7100
▁Bangladesh	-7101
▁prevention	-7102
▁successfully	-7103
Re	-7104
TM	-7105
aks	-7106
not	-7107
ears	-7108
uras	-7109
with	-7110
▁13%	-7111
▁16%	-7112
▁18%	-7113
▁BSE	-7114
▁Bol	-7115
▁MER	-7116
▁PAR	-7117
▁Squ	-7118
▁gum	-7119
LERGY	-7120
allas	-7121
ilson	-7122
mosph	-7123
▁Find	-7124
▁Fred	-7125
▁Long	-7126
▁OVER	-7127
▁east	-7128
inally	-7129
▁const	-7130
▁extra	-7131
▁never	-7132
▁penet	-7133
▁ranks	-7134
▁speed	-7135
▁2007."	-7136
▁Panama	-7137
▁exclud	-7138
▁fairly	-7139
▁sought	-7140
▁wealth	-7141
▁Auditor	-7142
▁Library	-7143
▁continu	-7144
▁decided	-7145
▁shipped	-7146
inational	-7147
▁Universe	-7148
▁dominate	-7149
▁realized	-7150
▁receiver	-7151
▁Establish	-7152
▁harvested	-7153
▁involving	-7154
▁Bijuralism	-7155
▁mechanisms	-7156
▁prohibited	-7157
▁Accountability	-7158
tr	-7159
900	-7160
RIC	-7161
Ter	-7162
edu	-7163
inc	-7164
obe	-7165
osm	-7166
ple	-7167
ère	-7168
▁AC	-7169
▁FL	-7170
▁HA	-7171
▁MT	-7172
▁Ne	-7173
▁Sn	-7174
aine	-7175
crib	-7176
▁120	-7177
▁15,	-7178
▁519	-7179
▁Sit	-7180
▁bus	-7181
▁don	-7182
▁Lear	-7183
▁Nutr	-7184
▁(604)	-7185
▁ASEAN	-7186
▁Queen	-7187
▁mount	-7188
▁taxes	-7189
▁views	-7190
Exports	-7191
Germany	-7192
▁bovine	-7193
▁breads	-7194
▁choose	-7195
▁lowest	-7196
▁pulses	-7197
▁spring	-7198
▁submit	-7199
▁Discuss	-7200
▁Extract	-7201
▁Grocery	-7202
▁Morocco	-7203
▁Nigeria	-7204
▁Tunisia	-7205
▁engaged	-7206
▁managed	-7207
▁samples	-7208
osanitary	-7209
▁Exporter	-7210
▁learning	-7211
▁pavilion	-7212
▁presents	-7213
repreneurs	-7214
▁2006-05-2	-7215
▁2007-09-2	-7216
▁receiving	-7217
▁Strengthen	-7218
▁Performance	-7219
▁Consultation	-7220
▁construction	-7221
▁traditionally	-7222
53	-7223
96	-7224
yo	-7225
▁—	-7226
whe	-7227
▁ou	-7228
..."	-7229
ALTH	-7230
Rest	-7231
VIEW	-7232
plus	-7233
▁(3)	-7234
▁Ben	-7235
▁Bur	-7236
▁Ken	-7237
▁Nav	-7238
abled	-7239
mical	-7240
ounds	-7241
rades	-7242
ulate	-7243
▁Flah	-7244
▁Risk	-7245
▁exem	-7246
▁fell	-7247
▁unit	-7248
50,000	-7249
▁(902)	-7250
▁advis	-7251
▁risks	-7252
▁acquis	-7253
▁agreed	-7254
▁crisis	-7255
▁winter	-7256
position	-7257
▁Capital	-7258
▁generic	-7259
▁opinion	-7260
▁profile	-7261
▁summary	-7262
▁visible	-7263
Therefore	-7264
▁Bulletin	-7265
▁Flaherty	-7266
▁findings	-7267
▁Malaspina	-7268
▁Specialty	-7269
▁addressed	-7270
▁container	-7271
▁enquiries	-7272
▁exceeding	-7273
▁paragraph	-7274
▁regulated	-7275
▁sensitive	-7276
▁Operations	-7277
▁convenient	-7278
▁integrated	-7279
▁Availability	-7280
▁administrative	-7281
94	-7282
fs	-7283
700	-7284
ESC	-7285
ada	-7286
arp	-7287
bal	-7288
jsp	-7289
lor	-7290
tis	-7291
▁Ma	-7292
FOOD	-7293
ibut	-7294
ogen	-7295
▁(40	-7296
▁End	-7297
▁Tro	-7298
asses	-7299
aware	-7300
shore	-7301
▁1980	-7302
▁Hond	-7303
▁Snow	-7304
▁hear	-7305
▁shif	-7306
▁went	-7307
▁Autom	-7308
▁galax	-7309
▁leads	-7310
▁micro	-7311
▁volun	-7312
justice	-7313
▁Prices	-7314
▁decide	-7315
▁double	-7316
▁estate	-7317
▁extend	-7318
▁facing	-7319
▁length	-7320
▁Gateway	-7321
▁becomes	-7322
▁recover	-7323
distribut	-7324
▁Cameroon	-7325
▁Consider	-7326
▁Facility	-7327
▁Response	-7328
▁Students	-7329
▁commonly	-7330
▁indirect	-7331
▁normally	-7332
▁released	-7333
▁Lithuania	-7334
▁Published	-7335
▁indicates	-7336
▁Guidelines	-7337
▁Application	-7338
▁Certificate	-7339
▁integration	-7340
▁Technologies	-7341
▁departmental	-7342
▁intermediate	-7343
ao	-7344
ía	-7345
cia	-7346
hab	-7347
ien	-7348
oes	-7349
uce	-7350
▁85	-7351
▁SU	-7352
▁mg	-7353
abin	-7354
imet	-7355
stat	-7356
▁1.5	-7357
▁12.	-7358
▁90%	-7359
▁Tom	-7360
▁Way	-7361
arrow	-7362
cular	-7363
eanut	-7364
quest	-7365
▁heat	-7366
Annual	-7367
cooked	-7368
hentic	-7369
ittees	-7370
▁(504)	-7371
▁2004"	-7372
▁Goods	-7373
▁compr	-7374
▁fluct	-7375
▁helps	-7376
▁shift	-7377
▁steps	-7378
▁trial	-7379
olvency	-7380
▁Strong	-7381
▁kosher	-7382
▁online	-7383
▁simple	-7384
quarters	-7385
▁atmosph	-7386
▁dismiss	-7387
▁spreads	-7388
▁warrant	-7389
▁packages	-7390
▁affecting	-7391
▁conscious	-7392
▁recognize	-7393
▁Businesses	-7394
▁astronomer	-7395
▁laboratory	-7396
▁Supermarket	-7397
▁composition	-7398
▁importation	-7399
▁Correctional	-7400
▁alternatives	-7401
▁improvements	-7402
PE	-7403
yc	-7404
-12	-7405
LAN	-7406
Not	-7407
Sec	-7408
ini	-7409
▁78	-7410
mont	-7411
▁600	-7412
▁Maj	-7413
▁Tri	-7414
-2003	-7415
atoon	-7416
efore	-7417
while	-7418
▁Camp	-7419
▁Hall	-7420
▁Rate	-7421
▁Task	-7422
▁Turn	-7423
person	-7424
rophys	-7425
▁Flesh	-7426
▁celeb	-7427
▁halal	-7428
itation	-7429
ivities	-7430
▁Launch	-7431
▁habits	-7432
▁placed	-7433
▁refers	-7434
omedical	-7435
▁Poultry	-7436
▁Seniors	-7437
▁Trading	-7438
▁counsel	-7439
▁employs	-7440
▁genetic	-7441
▁impacts	-7442
▁noodles	-7443
▁packing	-7444
▁Location	-7445
▁actually	-7446
▁provider	-7447
erapeutics	-7448
▁clearance	-7449
▁Celebrates	-7450
▁lifestyles	-7451
▁scientists	-7452
▁Presentation	-7453
▁implementing	-7454
▁manufactured	-7455
Op	-7456
▁‘	-7457
"""	-7458
10)	-7459
cap	-7460
abil	-7461
aise	-7462
enty	-7463
ffic	-7464
itud	-7465
ship	-7466
▁Max	-7467
▁wel	-7468
Organ	-7469
bours	-7470
ifies	-7471
oston	-7472
▁Host	-7473
▁fost	-7474
▁mill	-7475
▁prop	-7476
▁pure	-7477
▁road	-7478
▁sure	-7479
erries	-7480
▁1-800	-7481
▁Draft	-7482
▁Prote	-7483
▁Sweet	-7484
▁While	-7485
▁ideas	-7486
▁named	-7487
agazine	-7488
ocratic	-7489
ogether	-7490
▁fields	-7491
▁island	-7492
▁losing	-7493
▁pestic	-7494
▁residu	-7495
Consumer	-7496
enchmark	-7497
▁Protect	-7498
▁chopped	-7499
▁endorse	-7500
▁herring	-7501
▁Technical	-7502
▁confirmed	-7503
▁declining	-7504
▁discovery	-7505
▁practical	-7506
ytosanitary	-7507
▁continuing	-7508
▁geographic	-7509
▁Directorate	-7510
▁hypermarkets	-7511
▁Harmonization	-7512
▁contributions	-7513
▁Implementation	-7514
Fr	-7515
IV	-7516
ét	-7517
TIN	-7518
orf	-7519
▁Et	-7520
▁hy	-7521
eeks	-7522
enda	-7523
semb	-7524
▁(""	-7525
▁13,	-7526
▁Cat	-7527
▁Chi	-7528
▁Sol	-7529
▁Win	-7530
▁mut	-7531
Major	-7532
ansas	-7533
ensed	-7534
etics	-7535
▁Cape	-7536
▁Club	-7537
▁Line	-7538
▁Rock	-7539
▁huge	-7540
▁lost	-7541
▁stay	-7542
aviour	-7543
ximity	-7544
▁Grupo	-7545
▁Takes	-7546
▁bound	-7547
▁nutri	-7548
▁spons	-7549
▁users	-7550
Overall	-7551
▁Fiscal	-7552
▁Nation	-7553
▁actual	-7554
▁engine	-7555
▁vessel	-7556
inations	-7557
▁Harvest	-7558
▁Soldier	-7559
▁consequ	-7560
▁growers	-7561
▁kilomet	-7562
▁victims	-7563
▁Complete	-7564
▁PRODUCTS	-7565
▁contracts	-7566
▁operators	-7567
▁perceived	-7568
▁Regulatory	-7569
▁Vegetables	-7570
▁difference	-7571
▁manufacture	-7572
▁instructions	-7573
▁sophisticated	-7574
$1	-7575
9)	-7576
EF	-7577
FG	-7578
IM	-7579
Per	-7580
aii	-7581
bio	-7582
lit	-7583
mar	-7584
una	-7585
▁58	-7586
▁EN	-7587
▁HE	-7588
3-31	-7589
anas	-7590
irie	-7591
irth	-7592
pled	-7593
wich	-7594
▁198	-7595
▁Dar	-7596
▁Low	-7597
▁McC	-7598
▁SEC	-7599
▁fit	-7600
▁fur	-7601
trade	-7602
▁Uses	-7603
▁draw	-7604
▁skin	-7605
celand	-7606
iments	-7607
▁1,000	-7608
▁2000.	-7609
▁Paris	-7610
▁Scott	-7611
▁Austin	-7612
▁Boston	-7613
▁client	-7614
▁delays	-7615
▁exists	-7616
▁privat	-7617
▁things	-7618
▁Lebanon	-7619
▁bottled	-7620
▁derived	-7621
▁dispute	-7622
▁proport	-7623
▁Although	-7624
▁Gasoline	-7625
▁Violence	-7626
▁contrast	-7627
▁Louisiana	-7628
▁Situation	-7629
▁organisms	-7630
▁personnel	-7631
▁Australian	-7632
▁conducting	-7633
▁discussions	-7634
▁contribution	-7635
▁multinational	-7636
▁▪	-7637
-50	-7638
AGE	-7639
Res	-7640
Spe	-7641
ids	-7642
iec	-7643
ora	-7644
▁77	-7645
▁ST	-7646
▁ce	-7647
▁cn	-7648
athy	-7649
plan	-7650
ying	-7651
▁PRE	-7652
▁Sat	-7653
USTRY	-7654
essor	-7655
tures	-7656
▁Buff	-7657
▁Conc	-7658
▁Nort	-7659
▁fort	-7660
▁shop	-7661
atches	-7662
income	-7663
olitan	-7664
panied	-7665
rating	-7666
▁1998,	-7667
▁Cuban	-7668
▁Focus	-7669
▁Journ	-7670
▁Nunav	-7671
▁Power	-7672
▁Press	-7673
▁begin	-7674
▁persp	-7675
acteria	-7676
ionally	-7677
unction	-7678
▁Bakery	-7679
▁Edible	-7680
▁Others	-7681
▁Recomm	-7682
▁Supply	-7683
▁Sussex	-7684
▁covers	-7685
▁privil	-7686
▁serves	-7687
▁stocks	-7688
▁urchin	-7689
▁yellow	-7690
▁Chilean	-7691
▁Offices	-7692
▁Passage	-7693
▁consent	-7694
▁dynamic	-7695
▁focuses	-7696
▁formats	-7697
▁soybean	-7698
▁clinical	-7699
▁expropri	-7700
▁greatest	-7701
▁marketed	-7702
▁oriented	-7703
▁2008-06-2	-7704
▁Available	-7705
▁licensing	-7706
▁processor	-7707
▁residents	-7708
▁Amendments	-7709
▁Scientific	-7710
▁containers	-7711
,"	-7712
28	-7713
OP	-7714
:00	-7715
RIP	-7716
Sup	-7717
aci	-7718
riz	-7719
▁"3	-7720
▁CN	-7721
▁Ky	-7722
look	-7723
ming	-7724
omic	-7725
pens	-7726
ucks	-7727
▁16,	-7728
▁27,	-7729
▁Gre	-7730
▁Mat	-7731
▁NOM	-7732
▁roe	-7733
Japan	-7734
leans	-7735
pared	-7736
verse	-7737
▁Cand	-7738
▁Desc	-7739
▁Dian	-7740
▁Full	-7741
▁Viol	-7742
▁cash	-7743
▁cntg	-7744
▁ones	-7745
Health	-7746
Mexico	-7747
enture	-7748
ething	-7749
itudes	-7750
orough	-7751
▁Freed	-7752
▁Shape	-7753
▁analy	-7754
▁flesh	-7755
▁renew	-7756
▁surve	-7757
Article	-7758
Restaur	-7759
ensions	-7760
largest	-7761
related	-7762
▁appeal	-7763
▁deemed	-7764
▁enable	-7765
▁sailed	-7766
▁verify	-7767
oscience	-7768
▁Orleans	-7769
▁element	-7770
▁license	-7771
▁listing	-7772
▁payable	-7773
▁permits	-7774
estically	-7775
ustaceans	-7776
▁Americas	-7777
▁Identity	-7778
▁Personal	-7779
▁acquired	-7780
▁multiple	-7781
▁somewhat	-7782
▁2008-01-0	-7783
▁Dominican	-7784
▁Equipment	-7785
▁Exporting	-7786
▁Including	-7787
▁Municipal	-7788
▁behaviour	-7789
▁prospects	-7790
▁proximity	-7791
▁satisfied	-7792
▁technolog	-7793
▁workforce	-7794
▁Insolvency	-7795
▁acceptance	-7796
▁accompanied	-7797
▁temperature	-7798
▁arrangements	-7799
▁distinctions	-7800
Cl	-7801
El	-7802
So	-7803
nl	-7804
1.3	-7805
Inc	-7806
ena	-7807
ova	-7808
▁84	-7809
LING	-7810
▁17%	-7811
▁196	-7812
▁30,	-7813
▁Neg	-7814
▁Old	-7815
▁REG	-7816
▁Sem	-7817
▁Ten	-7818
▁lob	-7819
▁obs	-7820
▁rib	-7821
▁suc	-7822
4-20)	-7823
RODUC	-7824
Where	-7825
early	-7826
enzie	-7827
imize	-7828
▁	-7829
e	-7830
a	-7831
t	-7832
n	-7833
o	-7834
i	-7835
r	-7836
s	-7837
l	-7838
d	-7839
c	-7840
h	-7841
u	-7842
m	-7843
p	-7844
f	-7845
g	-7846
y	-7847
"	-7848
0	-7849
.	-7850
b	-7851
w	-7852
v	-7853
,	-7854
C	-7855
-	-7856
2	-7857
A	-7858
T	-7859
S	-7860
1	-7861
k	-7862
I	-7863
P	-7864
M	-7865
F	-7866
x	-7867
E	-7868
:	-7869
R	-7870
6	-7871
3	-7872
D	-7873
N	-7874
5	-7875
7	-7876
O	-7877
4	-7878
)	-7879
9	-7880
(	-7881
B	-7882
8	-7883
G	-7884
H	-7885
L	-7886
U	-7887
]	-7888
[	-7889
/	-7890
W	-7891
z	-7892
q	-7893
•	-7894
%	-7895
_	-7896
j	-7897
J	-7898
'	-7899
V	-7900
$	-7901
’	-7902
K	-7903
;	-7904
Q	-7905
Y	-7906
&	-7907
é	-7908
@	-7909
–	-7910
*	-7911
?	-7912
X	-7913
Z	-7914
|	-7915
!	-7916
ë	-7917
◦	-7918
=	-7919
#	-7920
+	-7921
>	-7922
è	-7923
€	-7924
í	-7925
ó	-7926
á	-7927
—	-7928
ç	-7929
ñ	-7930
«	-7931
É	-7932
ü	-7933
‘	-7934
▪	-7935
<	-7936
à	-7937
Ø	-7938
ê	-7939
©	-7940
ô	-7941
°	-7942
Ó	-7943
ú	-7944
­	-7945
ä	-7946
⁄	-7947
►	-7948
ã	-7949
»	-7950
ö	-7951
~	-7952
â	-7953
ø	-7954
®	-7955
†	-7956
Є	-7957
⇒	-7958
−	-7959
Î	-7960
£	-7961
Ñ	-7962
î	-7963
	-7964
·	-7965
Á	-7966
ï	-7967
□	-7968
√	-7969
û	-7970
`	-7971
ß	-7972
Í	-7973
Ö	-7974
õ	-7975
\	-7976
	-7977
́	-7978
¤	-7979
ù	-7980
μ	-7981
‐	-7982
′	-7983
¥	-7984
È	-7985
æ	-7986
{	-7987
}	-7988
	-7989
§	-7990
À	-7991
Ü	-7992
ò	-7993
œ	-7994
̈	-7995
