<unk>	0
<s>	0
</s>	0
<pad>	0
▁d	-0
es	-1
en	-2
on	-3
▁l	-4
▁p	-5
an	-6
▁de	-7
ti	-8
▁c	-9
ur	-10
er	-11
ent	-12
▁a	-13
▁s	-14
in	-15
re	-16
is	-17
et	-18
tion	-19
qu	-20
it	-21
ar	-22
or	-23
▁la	-24
▁m	-25
ro	-26
▁et	-27
al	-28
ment	-29
▁des	-30
▁C	-31
ation	-32
ou	-33
om	-34
te	-35
▁"	-36
ne	-37
▁les	-38
▁du	-39
le	-40
ri	-41
▁le	-42
ad	-43
▁à	-44
."	-45
▁f	-46
il	-47
our	-48
ré	-49
00	-50
▁2	-51
que	-52
▁t	-53
ch	-54
▁en	-55
ra	-56
▁au	-57
res	-58
ce	-59
▁pro	-60
anad	-61
li	-62
us	-63
ant	-64
▁L	-65
▁v	-66
el	-67
▁n	-68
ai	-69
ons	-70
au	-71
ont	-72
▁200	-73
▁u	-74
ci	-75
▁:	-76
ort	-77
ans	-78
omm	-79
és	-80
▁é	-81
▁g	-82
▁Canad	-83
du	-84
▁Canada	-85
ex	-86
▁b	-87
ta	-88
▁(	-89
port	-90
▁qu	-91
ol	-92
▁par	-93
▁S	-94
as	-95
▁pour	-96
▁A	-97
ag	-98
ie	-99
▁P	-100
▁in	-101
its	-102
▁produ	-103
▁1	-104
si	-105
▁dé	-106
ve	-107
est	-108
se	-109
▁re	-110
im	-111
de	-112
urs	-113
ien	-114
té	-115
▁sur	-116
▁pl	-117
ale	-118
▁ré	-119
oi	-120
-0	-121
▁T	-122
tre	-123
ff	-124
▁M	-125
ic	-126
▁dans	-127
me	-128
ab	-129
▁que	-130
▁D	-131
▁[	-132
▁un	-133
▁]	-134
at	-135
ul	-136
▁se	-137
ers	-138
ments	-139
▁ex	-140
ations	-141
▁con	-142
▁produits	-143
les	-144
un	-145
ouv	-146
▁une	-147
ac	-148
▁o	-149
▁comm	-150
ter	-151
▁est	-152
▁mar	-153
▁h	-154
ité	-155
▁plus	-156
pp	-157
ure	-158
▁I	-159
di	-160
▁cons	-161
▁qui	-162
né	-163
aires	-164
ques	-165
aux	-166
aire	-167
▁ou	-168
os	-169
▁canad	-170
ts	-171
eu	-172
ain	-173
▁canadien	-174
▁ch	-175
▁aux	-176
ig	-177
ces	-178
and	-179
iss	-180
▁F	-181
▁B	-182
▁r	-183
▁N	-184
entre	-185
ction	-186
▁pré	-187
lé	-188
▁R	-189
ir	-190
pr	-191
ère	-192
ique	-193
▁sont	-194
▁Le	-195
-1	-196
ist	-197
ww	-198
ric	-199
▁su	-200
▁march	-201
import	-202
▁2006	-203
▁j	-204
am	-205
orm	-206
ins	-207
ang	-208
▁com	-209
iv	-210
teurs	-211
ée	-212
▁%	-213
ance	-214
ati	-215
ous	-216
ais	-217
end	-218
em	-219
▁ali	-220
▁E	-221
age	-222
ion	-223
tu	-224
__	-225
elle	-226
ence	-227
▁mil	-228
og	-229
tr	-230
▁mo	-231
ouver	-232
▁po	-233
nement	-234
▁an	-235
▁-	-236
▁tr	-237
erv	-238
ants	-239
pe	-240
ès	-241
▁G	-242
▁2007	-243
▁ac	-244
pé	-245
teur	-246
nes	-247
oc	-248
▁Les	-249
ay	-250
tes	-251
▁milli	-252
▁pr	-253
▁import	-254
ait	-255
-2	-256
▁•	-257
ali	-258
▁In	-259
ées	-260
▁ont	-261
ite	-262
bli	-263
tri	-264
ine	-265
▁3	-266
ande	-267
▁pas	-268
▁entre	-269
ue	-270
Un	-271
▁ce	-272
bre	-273
ap	-274
▁ra	-275
▁marché	-276
che	-277
pris	-278
ven	-279
mes	-280
form	-281
tern	-282
▁gouver	-283
ord	-284
▁ag	-285
able	-286
ten	-287
sent	-288
ér	-289
olog	-290
▁commer	-291
▁La	-292
▁res	-293
▁rég	-294
pl	-295
▁Té	-296
▁min	-297
▁O	-298
▁J	-299
ales	-300
vec	-301
con	-302
sion	-303
ux	-304
▁H	-305
▁di	-306
▁4	-307
ays	-308
▁parti	-309
ég	-310
lar	-311
ture	-312
▁5	-313
cip	-314
▁avec	-315
av	-316
▁cont	-317
▁É	-318
rou	-319
ateurs	-320
mi	-321
ères	-322
une	-323
ec	-324
▁gouvernement	-325
▁peu	-326
par	-327
mé	-328
ense	-329
id	-330
oci	-331
iques	-332
▁V	-333
tif	-334
▁:"	-335
mentaires	-336
tres	-337
éné	-338
▁pu	-339
eur	-340
ette	-341
éd	-342
www	-343
▁export	-344
ois	-345
▁2007-0	-346
ph	-347
▁av	-348
▁2006-0	-349
▁pays	-350
ard	-351
ement	-352
▁consomm	-353
ari	-354
dus	-355
▁Ag	-356
rib	-357
ss	-358
ves	-359
Les	-360
▁millions	-361
▁bi	-362
ble	-363
oy	-364
tions	-365
▁Comm	-366
oit	-367
oir	-368
tique	-369
▁6	-370
▁te	-371
erm	-372
ot	-373
▁tou	-374
▁ne	-375
▁trans	-376
▁»	-377
eil	-378
▁sec	-379
▁pri	-380
▁il	-381
elles	-382
dustri	-383
lis	-384
ternation	-385
ge	-386
▁aliments	-387
être	-388
▁«	-389
▁fr	-390
En	-391
ond	-392
▁19	-393
tin	-394
▁gr	-395
min	-396
erson	-397
Le	-398
vent	-399
conom	-400
▁conc	-401
▁Ch	-402
▁W	-403
▁7	-404
____	-405
▁app	-406
ca	-407
▁serv	-408
ui	-409
ouve	-410
▁comp	-411
▁dis	-412
cu	-413
vel	-414
cher	-415
▁nation	-416
tats	-417
lle	-418
▁dro	-419
▁publi	-420
ollar	-421
▁nom	-422
ités	-423
▁dollar	-424
▁géné	-425
velo	-426
incip	-427
ail	-428
▁"•	-429
istre	-430
▁commerci	-431
▁person	-432
▁ces	-433
▁9	-434
ise	-435
od	-436
co	-437
▁internation	-438
▁dollars	-439
tis	-440
ours	-441
▁été	-442
velopp	-443
ing	-444
st	-445
▁tra	-446
▁entrepris	-447
▁être	-448
▁at	-449
ies	-450
▁$	-451
dustrie	-452
▁éta	-453
▁off	-454
formation	-455
▁cro	-456
ents	-457
▁princip	-458
▁8	-459
ens	-460
ulture	-461
alis	-462
org	-463
▁canadienne	-464
▁rap	-465
▁Télé	-466
ines	-467
alement	-468
mentaire	-469
jet	-470
ls	-471
▁Pro	-472
▁rep	-473
ices	-474
roali	-475
▁Dé	-476
ob	-477
remi	-478
▁leur	-479
ét	-480
aient	-481
▁acc	-482
ici	-483
▁ter	-484
),	-485
ué	-486
ourn	-487
tiques	-488
▁dev	-489
..	-490
▁vent	-491
ut	-492
▁dem	-493
lement	-494
nements	-495
ème	-496
chn	-497
▁cer	-498
nées	-499
▁ministre	-500
▁secteur	-501
▁e	-502
titu	-503
rec	-504
po	-505
gment	-506
▁Cons	-507
▁ses	-508
▁déc	-509
anté	-510
▁nouve	-511
▁États	-512
veloppement	-513
▁alimentaires	-514
▁génér	-515
▁co	-516
ill	-517
▁Q	-518
vir	-519
▁comme	-520
gra	-521
aut	-522
anis	-523
▁entreprises	-524
▁don	-525
ice	-526
▁K	-527
La	-528
um	-529
ribu	-530
▁son	-531
viron	-532
000	-533
tiv	-534
ass	-535
▁fra	-536
▁présent	-537
éri	-538
née	-539
aine	-540
▁y	-541
ni	-542
per	-543
▁leurs	-544
▁ob	-545
▁2008	-546
rit	-547
app	-548
ffaires	-549
alité	-550
industrie	-551
▁deux	-552
tilis	-553
▁recher	-554
▁no	-555
▁fin	-556
ient	-557
ission	-558
tég	-559
ême	-560
▁nombre	-561
trang	-562
▁canadiens	-563
▁économ	-564
▁agric	-565
▁cette	-566
orable	-567
▁U	-568
tra	-569
▁canadiennes	-570
▁ann	-571
▁mon	-572
ures	-573
emb	-574
▁www	-575
ace	-576
▁fourn	-577
tt	-578
▁lég	-579
▁2005	-580
résent	-581
ors	-582
com	-583
▁fait	-584
▁premi	-585
▁mais	-586
▁es	-587
▁sou	-588
▁sa	-589
▁région	-590
ches	-591
enti	-592
gram	-593
chnolog	-594
ll	-595
issance	-596
//	-597
ttp	-598
▁pos	-599
onorable	-600
riel	-601
://	-602
ante	-603
riculture	-604
rés	-605
Unis	-606
▁si	-607
▁exportations	-608
era	-609
▁services	-610
▁vale	-611
ood	-612
▁Su	-613
enseig	-614
éc	-615
▁prix	-616
▁2004	-617
▁Conseil	-618
▁http	-619
▁peut	-620
▁car	-621
▁bo	-622
ong	-623
▁commun	-624
isse	-625
▁personne	-626
ions	-627
▁très	-628
▁2008-0	-629
▁représent	-630
ivers	-631
eux	-632
he	-633
rait	-634
▁demande	-635
ct	-636
▁vi	-637
▁rapport	-638
▁Loi	-639
▁vis	-640
▁Tél	-641
▁perm	-642
pos	-643
lev	-644
▁amé	-645
all	-646
mo	-647
uits	-648
▁rel	-649
iens	-650
ication	-651
ES	-652
▁for	-653
▁biolog	-654
▁199	-655
▁000	-656
▁étrang	-657
▁nationale	-658
ier	-659
ssi	-660
▁déta	-661
ences	-662
gc	-663
▁dist	-664
ner	-665
▁eff	-666
▁mati	-667
▁valeur	-668
▁ca	-669
▁produit	-670
▁développement	-671
0,	-672
empl	-673
▁production	-674
acc	-675
▁importations	-676
▁consommateurs	-677
ON	-678
▁Cour	-679
▁augment	-680
uis	-681
▁ma	-682
issons	-683
export	-684
mp	-685
iti	-686
▁ég	-687
▁marchés	-688
pag	-689
ili	-690
enseignements	-691
èg	-692
--	-693
)."	-694
ille	-695
▁Ex	-696
oire	-697
▁santé	-698
▁aussi	-699
organis	-700
▁ad	-701
▁2006-1	-702
insi	-703
ide	-704
cess	-705
chés	-706
fin	-707
▁non	-708
▁autres	-709
▁direc	-710
vis	-711
▁2003	-712
▁grand	-713
itu	-714
▁soci	-715
-3	-716
▁moy	-717
ative	-718
tru	-719
ats	-720
iste	-721
▁rec	-722
▁jus	-723
▁croissance	-724
été	-725
▁of	-726
ages	-727
ues	-728
▁gra	-729
▁im	-730
▁mes	-731
▁sau	-732
des	-733
int	-734
▁Un	-735
enne	-736
▁international	-737
▁ét	-738
▁dép	-739
▁commerce	-740
▁fruits	-741
ateur	-742
▁agroali	-743
tic	-744
▁même	-745
anc	-746
▁ass	-747
▁Commission	-748
▁recherche	-749
13	-750
▁distribu	-751
ocu	-752
ire	-753
AN	-754
ards	-755
▁ti	-756
ration	-757
pul	-758
▁ventes	-759
▁ju	-760
▁trav	-761
bl	-762
els	-763
près	-764
év	-765
▁vers	-766
▁ren	-767
TI	-768
▁diff	-769
nent	-770
posi	-771
▁ver	-772
aci	-773
▁certa	-774
▁ar	-775
eau	-776
▁droits	-777
▁public	-778
ricain	-779
bec	-780
▁Agence	-781
▁Téléc	-782
ources	-783
▁faire	-784
alu	-785
▁mer	-786
▁renseignements	-787
olu	-788
▁nouveau	-789
ult	-790
▁dont	-791
▁frais	-792
▁économique	-793
bles	-794
▁féd	-795
________	-796
▁également	-797
▁inter	-798
▁suiv	-799
▁ainsi	-800
lu	-801
tari	-802
én	-803
autres	-804
▁tot	-805
bil	-806
péci	-807
endre	-808
ances	-809
▁col	-810
▁program	-811
elon	-812
▁2002	-813
▁En	-814
▁conf	-815
ton	-816
information	-817
istère	-818
aî	-819
uébec	-820
mon	-821
▁utilis	-822
▁li	-823
ternet	-824
taur	-825
▁consommation	-826
▁spéci	-827
ole	-828
ade	-829
ver	-830
▁Il	-831
ises	-832
élé	-833
sement	-834
▁bien	-835
▁–	-836
▁poli	-837
tive	-838
téri	-839
él	-840
antes	-841
▁matière	-842
oles	-843
▁aut	-844
opé	-845
io	-846
▁droit	-847
cc	-848
isson	-849
éta	-850
▁soit	-851
▁Courriel	-852
tér	-853
ils	-854
▁sy	-855
▁règ	-856
▁20	-857
▁and	-858
out	-859
▁al	-860
erie	-861
▁cré	-862
▁prov	-863
ente	-864
▁fab	-865
erce	-866
▁popul	-867
cé	-868
▁Mex	-869
entrepris	-870
▁pê	-871
eb	-872
▁qualité	-873
lan	-874
ellement	-875
▁10	-876
▁sous	-877
fense	-878
▁cap	-879
▁Québec	-880
one	-881
▁Nord	-882
▁cas	-883
ress	-884
ctions	-885
▁Internet	-886
lles	-887
▁mag	-888
▁on	-889
▁rés	-890
op	-891
50	-892
▁organis	-893
▁biologiques	-894
ov	-895
▁der	-896
▁tro	-897
In	-898
AC	-899
endant	-900
oivent	-901
mbre	-902
ables	-903
cri	-904
▁fédér	-905
▁pe	-906
atur	-907
1,	-908
ison	-909
▁form	-910
▁peuvent	-911
▁(2	-912
On	-913
▁ach	-914
▁prépar	-915
chnologie	-916
▁ph	-917
Ag	-918
▁reven	-919
rent	-920
▁Food	-921
▁milliards	-922
▁cour	-923
fi	-924
lic	-925
▁travail	-926
UE	-927
rer	-928
▁années	-929
anti	-930
▁cours	-931
ets	-932
▁rép	-933
tice	-934
aines	-935
▁cl	-936
▁conn	-937
dition	-938
▁Mar	-939
▁derni	-940
EN	-941
honorable	-942
▁projet	-943
▁tout	-944
estion	-945
▁ent	-946
▁Affaires	-947
écur	-948
▁avant	-949
▁pass	-950
▁environ	-951
▁main	-952
éré	-953
▁inf	-954
▁port	-955
▁partie	-956
orte	-957
tivités	-958
▁fa	-959
▁tous	-960
▁restaur	-961
▁nous	-962
lus	-963
mment	-964
tiqu	-965
▁0	-966
ode	-967
▁Com	-968
▁concer	-969
▁doivent	-970
▁fon	-971
ications	-972
gel	-973
▁produc	-974
fs	-975
▁Par	-976
▁américain	-977
▁Col	-978
cep	-979
vre	-980
▁moins	-981
ann	-982
ru	-983
ind	-984
▁12	-985
▁bas	-986
ate	-987
oration	-988
vestis	-989
▁étrangères	-990
act	-991
▁sans	-992
écurité	-993
▁ins	-994
ich	-995
éra	-996
▁nouv	-997
exportation	-998
ER	-999
▁bio	-1000
▁part	-1001
▁vous	-1002
▁poisson	-1003
▁(6	-1004
uel	-1005
▁élev	-1006
tenir	-1007
▁Serv	-1008
▁permet	-1009
aliments	-1010
▁actu	-1011
céd	-1012
▁exportateurs	-1013
pec	-1014
urr	-1015
▁Commerce	-1016
ép	-1017
raient	-1018
ange	-1019
▁détail	-1020
uses	-1021
mentation	-1022
▁général	-1023
▁fabric	-1024
▁An	-1025
tent	-1026
équ	-1027
▁rem	-1028
▁ser	-1029
▁dom	-1030
▁prof	-1031
▁année	-1032
▁premier	-1033
▁dou	-1034
▁trou	-1035
apon	-1036
orc	-1037
eurs	-1038
▁annon	-1039
culi	-1040
tection	-1041
▁grande	-1042
▁déb	-1043
ber	-1044
pes	-1045
▁Re	-1046
llem	-1047
▁boissons	-1048
▁provin	-1049
serv	-1050
emp	-1051
oris	-1052
▁Défense	-1053
▁particuli	-1054
10	-1055
▁magas	-1056
perm	-1057
raph	-1058
sources	-1059
ribun	-1060
ites	-1061
lec	-1062
▁Sud	-1063
▁Tr	-1064
▁év	-1065
ani	-1066
▁Mexique	-1067
IC	-1068
Ou	-1069
▁peti	-1070
▁15	-1071
tario	-1072
▁né	-1073
▁grou	-1074
AL	-1075
▁cli	-1076
▁priv	-1077
ieu	-1078
entreprise	-1079
permar	-1080
blis	-1081
use	-1082
rique	-1083
roalimentaire	-1084
pri	-1085
ach	-1086
▁fac	-1087
▁hab	-1088
▁agricoles	-1089
rig	-1090
▁doit	-1091
ras	-1092
puis	-1093
nant	-1094
▁cent	-1095
▁proven	-1096
arm	-1097
tifs	-1098
▁vie	-1099
▁possi	-1100
▁trois	-1101
▁toute	-1102
▁men	-1103
▁taux	-1104
quer	-1105
▁loc	-1106
▁concurr	-1107
mble	-1108
▁pouv	-1109
tement	-1110
tat	-1111
▁2007-1	-1112
▁viande	-1113
motion	-1114
▁atte	-1115
▁exig	-1116
▁fond	-1117
▁fran	-1118
▁modi	-1119
▁raison	-1120
▁fournisse	-1121
oul	-1122
▁empl	-1123
De	-1124
▁contre	-1125
▁17	-1126
▁compte	-1127
▁docu	-1128
ociation	-1129
▁vo	-1130
▁offici	-1131
▁population	-1132
ez	-1133
▁ten	-1134
Ouest	-1135
TION	-1136
▁ni	-1137
ource	-1138
▁eur	-1139
▁indi	-1140
atives	-1141
▁contin	-1142
▁télé	-1143
▁18	-1144
ureau	-1145
▁devrait	-1146
▁mondi	-1147
reg	-1148
▁natur	-1149
urer	-1150
▁per	-1151
importation	-1152
inf	-1153
▁On	-1154
rée	-1155
abil	-1156
omb	-1157
▁vente	-1158
▁pêche	-1159
▁Web	-1160
▁promotion	-1161
▁site	-1162
embres	-1163
▁consid	-1164
Pour	-1165
acif	-1166
ième	-1167
arg	-1168
▁où	-1169
▁coû	-1170
pons	-1171
fication	-1172
▁principaux	-1173
▁afin	-1174
Il	-1175
▁particip	-1176
▁autre	-1177
▁constitu	-1178
aï	-1179
▁membres	-1180
▁prév	-1181
▁k	-1182
▁publique	-1183
oup	-1184
oin	-1185
ribunal	-1186
▁the	-1187
▁situ	-1188
▁nu	-1189
Dans	-1190
anci	-1191
▁St	-1192
▁syst	-1193
AR	-1194
mb	-1195
▁1,	-1196
▁nouveaux	-1197
tron	-1198
▁monde	-1199
▁Min	-1200
▁bes	-1201
▁personnes	-1202
▁Produ	-1203
AD	-1204
iter	-1205
19	-1206
ieurs	-1207
ition	-1208
▁national	-1209
▁régions	-1210
êt	-1211
▁Fr	-1212
oires	-1213
▁lors	-1214
phone	-1215
mps	-1216
onnes	-1217
▁était	-1218
▁europé	-1219
pagne	-1220
▁Centre	-1221
13)	-1222
çon	-1223
▁fonction	-1224
tatis	-1225
permarchés	-1226
▁gro	-1227
▁protection	-1228
▁marque	-1229
▁transform	-1230
1-2	-1231
ign	-1232
atri	-1233
Au	-1234
rg	-1235
▁sub	-1236
▁jour	-1237
èrement	-1238
ed	-1239
th	-1240
▁réf	-1241
aise	-1242
▁respons	-1243
ôle	-1244
▁ans	-1245
▁magasins	-1246
▁(3	-1247
péri	-1248
ports	-1249
position	-1250
▁inc	-1251
alisation	-1252
▁ind	-1253
▁Chine	-1254
▁aff	-1255
▁DE	-1256
▁différ	-1257
dent	-1258
att	-1259
▁sal	-1260
conomie	-1261
éch	-1262
▁certif	-1263
aluation	-1264
aille	-1265
ritann	-1266
sements	-1267
gré	-1268
----	-1269
▁agricole	-1270
▁cor	-1271
▁revenu	-1272
....	-1273
▁biote	-1274
-8	-1275
▁elle	-1276
umes	-1277
▁cel	-1278
vision	-1279
Par	-1280
ax	-1281
▁ri	-1282
▁compr	-1283
part	-1284
▁honorable	-1285
œu	-1286
lantique	-1287
).	-1288
isl	-1289
aus	-1290
iles	-1291
comm	-1292
▁(613)	-1293
acifique	-1294
tratég	-1295
▁dés	-1296
▁nécess	-1297
▁ministère	-1298
ht	-1299
▁fi	-1300
cell	-1301
▁activités	-1302
▁divers	-1303
▁14	-1304
▁ab	-1305
▁pres	-1306
▁*	-1307
minist	-1308
pection	-1309
▁loi	-1310
▁générale	-1311
UR	-1312
▁norm	-1313
2-2	-1314
entes	-1315
istes	-1316
▁Agriculture	-1317
agne	-1318
2-1	-1319
▁rou	-1320
▁suc	-1321
▁long	-1322
-7	-1323
▁Con	-1324
▁Nouv	-1325
Ontario	-1326
fois	-1327
▁anim	-1328
▁selon	-1329
▁so	-1330
▁ils	-1331
andes	-1332
térieur	-1333
▁»,	-1334
▁exp	-1335
stitu	-1336
▁producteurs	-1337
▁30	-1338
▁moyen	-1339
sie	-1340
▁th	-1341
▁augmenté	-1342
,5	-1343
▁US	-1344
▁annonce	-1345
tien	-1346
▁sci	-1347
jou	-1348
ditions	-1349
tention	-1350
▁base	-1351
ettre	-1352
ête	-1353
▁civ	-1354
▁mise	-1355
US	-1356
agr	-1357
▁De	-1358
▁cad	-1359
ommes	-1360
▁tonnes	-1361
▁sécurité	-1362
tée	-1363
▁13	-1364
11	-1365
ert	-1366
ôte	-1367
▁Jus	-1368
▁quel	-1369
ssociation	-1370
-4	-1371
▁dim	-1372
tamment	-1373
iff	-1374
▁seu	-1375
ettes	-1376
▁rapide	-1377
rées	-1378
▁programme	-1379
angl	-1380
▁Des	-1381
▁depuis	-1382
ow	-1383
▁dur	-1384
aque	-1385
▁ro	-1386
cture	-1387
▁porc	-1388
cessus	-1389
▁Tribunal	-1390
▁(4	-1391
eure	-1392
▁&	-1393
▁16	-1394
économie	-1395
ler	-1396
▁péri	-1397
abilité	-1398
▁financi	-1399
da	-1400
iver	-1401
▁supermarchés	-1402
aly	-1403
▁certains	-1404
▁importés	-1405
▁éc	-1406
venir	-1407
▁Res	-1408
▁exemp	-1409
▁mé	-1410
▁plusieurs	-1411
▁lang	-1412
ograph	-1413
▁façon	-1414
omme	-1415
▁Car	-1416
▁bon	-1417
▁Japon	-1418
ope	-1419
1)	-1420
12	-1421
▁processus	-1422
anit	-1423
▁mesure	-1424
▁établi	-1425
air	-1426
der	-1427
resse	-1428
▁fournisseurs	-1429
▁Co	-1430
▁voy	-1431
lab	-1432
▁25	-1433
usion	-1434
ia	-1435
3-2	-1436
▁légumes	-1437
▁important	-1438
Ce	-1439
spagne	-1440
▁biotechnologie	-1441
ains	-1442
ôt	-1443
étés	-1444
▁législ	-1445
▁saumon	-1446
ombie	-1447
onn	-1448
orer	-1449
inspection	-1450
▁transformation	-1451
▁sem	-1452
▁22	-1453
orig	-1454
▁nav	-1455
▁programmes	-1456
▁Agroalimentaire	-1457
éli	-1458
2-0	-1459
▁st	-1460
▁chaî	-1461
▁service	-1462
ritannique	-1463
avant	-1464
exp	-1465
entif	-1466
emball	-1467
asion	-1468
▁près	-1469
▁Téléphone	-1470
▁appro	-1471
▁rédu	-1472
llemagne	-1473
▁ci	-1474
▁cri	-1475
isation	-1476
▁système	-1477
illes	-1478
sions	-1479
▁tend	-1480
▁étu	-1481
▁achet	-1482
▁Di	-1483
agriculture	-1484
▁fer	-1485
▁données	-1486
▁concernant	-1487
▁pra	-1488
accès	-1489
▁toutes	-1490
▁stratég	-1491
▁alimentaire	-1492
-9	-1493
erre	-1494
▁ressources	-1495
▁avoir	-1496
tivité	-1497
▁congel	-1498
▁mont	-1499
▁dimin	-1500
vention	-1501
▁plan	-1502
land	-1503
▁mal	-1504
▁éch	-1505
OM	-1506
ision	-1507
ticle	-1508
issent	-1509
▁destin	-1510
eun	-1511
▁Rap	-1512
1-1	-1513
tructure	-1514
▁laiti	-1515
▁Service	-1516
4-2	-1517
IS	-1518
▁dém	-1519
▁fois	-1520
htm	-1521
▁gestion	-1522
▁pourrait	-1523
lég	-1524
▁Ph	-1525
▁Justice	-1526
▁Y	-1527
▁étaient	-1528
enn	-1529
hn	-1530
▁as	-1531
▁mesures	-1532
-5	-1533
-6	-1534
tant	-1535
▁rad	-1536
▁conten	-1537
évaluation	-1538
▁23	-1539
▁Au	-1540
▁pouvoir	-1541
▁11	-1542
▁moyenne	-1543
▁Inc	-1544
atoire	-1545
▁2005,	-1546
▁Pacifique	-1547
▁distribution	-1548
rodu	-1549
▁parten	-1550
ancement	-1551
▁marchand	-1552
wa	-1553
▁Har	-1554
▁notamment	-1555
estions	-1556
▁commerciaux	-1557
han	-1558
▁temps	-1559
ew	-1560
tégor	-1561
▁vari	-1562
utilis	-1563
▁accord	-1564
IB	-1565
▁100	-1566
▁transport	-1567
ATION	-1568
▁recomm	-1569
▁2006-10	-1570
orme	-1571
èmes	-1572
▁cadre	-1573
▁employ	-1574
alimentation	-1575
ENT	-1576
su	-1577
▁Se	-1578
tenant	-1579
▁procéd	-1580
oun	-1581
▁vin	-1582
▁répond	-1583
▁fédéral	-1584
▁politiques	-1585
________________	-1586
▁vol	-1587
▁2000	-1588
▁chiff	-1589
vironnement	-1590
IN	-1591
▁fai	-1592
tim	-1593
çu	-1594
ane	-1595
ell	-1596
▁ess	-1597
▁réc	-1598
olution	-1599
imp	-1600
occ	-1601
▁cin	-1602
eille	-1603
4-1	-1604
▁Im	-1605
▁2001	-1606
▁consul	-1607
20	-1608
▁Sec	-1609
▁Colombie	-1610
▁(5	-1611
▁Cor	-1612
▁habit	-1613
oute	-1614
▁franç	-1615
▁établis	-1616
▁investis	-1617
État	-1618
positions	-1619
▁Sh	-1620
tives	-1621
▁Al	-1622
▁Une	-1623
▁haus	-1624
▁nive	-1625
▁détaill	-1626
▁Ste	-1627
▁commerciale	-1628
yp	-1629
rir	-1630
▁Export	-1631
▁internationale	-1632
étiqu	-1633
▁lim	-1634
core	-1635
exic	-1636
▁normes	-1637
▁relative	-1638
oû	-1639
▁expl	-1640
▁contr	-1641
▁auprès	-1642
▁trad	-1643
▁sé	-1644
▁catégor	-1645
▁questions	-1646
▁Ar	-1647
anne	-1648
▁jusqu	-1649
▁votre	-1650
urope	-1651
▁période	-1652
ica	-1653
▁déter	-1654
▁règle	-1655
rier	-1656
crimin	-1657
▁50	-1658
nels	-1659
▁contra	-1660
▁prop	-1661
alie	-1662
coup	-1663
blig	-1664
appro	-1665
térêt	-1666
▁blé	-1667
ke	-1668
ess	-1669
êts	-1670
fici	-1671
aison	-1672
bilité	-1673
▁2004,	-1674
ensemble	-1675
▁million	-1676
80	-1677
▁hum	-1678
▁agroalimentaire	-1679
▁groupe	-1680
▁lieu	-1681
eaucoup	-1682
▁lait	-1683
▁américains	-1684
af	-1685
ilipp	-1686
▁mexic	-1687
▁No	-1688
tta	-1689
▁ty	-1690
ieux	-1691
oni	-1692
▁vue	-1693
isc	-1694
ean	-1695
▁encore	-1696
pagn	-1697
▁ceux	-1698
▁Cont	-1699
▁Nous	-1700
iser	-1701
▁gar	-1702
▁hausse	-1703
16	-1704
CE	-1705
tor	-1706
sra	-1707
uri	-1708
,3	-1709
▁sera	-1710
▁Fin	-1711
▁radio	-1712
▁CAD	-1713
occasion	-1714
▁compris	-1715
▁civil	-1716
df	-1717
oient	-1718
▁disp	-1719
▁réglement	-1720
DA	-1721
isme	-1722
▁ajou	-1723
▁point	-1724
ma	-1725
▁politique	-1726
vi	-1727
▁Développement	-1728
ity	-1729
jec	-1730
vesti	-1731
▁recommand	-1732
▁Santé	-1733
▁chaque	-1734
▁24	-1735
indre	-1736
▁préc	-1737
▁gl	-1738
conn	-1739
▁plu	-1740
tés	-1741
▁cr	-1742
affaires	-1743
▁commerciales	-1744
oth	-1745
▁pâ	-1746
▁che	-1747
▁sujet	-1748
▁Bureau	-1749
rom	-1750
▁méd	-1751
▁nég	-1752
▁voir	-1753
dients	-1754
mérique	-1755
▁Ministère	-1756
▁devraient	-1757
▁discrimin	-1758
nam	-1759
tronom	-1760
4)	-1761
asse	-1762
▁tour	-1763
▁résul	-1764
▁dernières	-1765
▁seulement	-1766
qui	-1767
▁Pê	-1768
▁inst	-1769
▁place	-1770
unications	-1771
TE	-1772
och	-1773
▁détermin	-1774
ds	-1775
xte	-1776
▁(9	-1777
▁Roy	-1778
uelle	-1779
pendant	-1780
▁société	-1781
résil	-1782
,8	-1783
▁0,	-1784
erve	-1785
▁mét	-1786
olume	-1787
laration	-1788
3-1	-1789
▁céré	-1790
▁fam	-1791
OR	-1792
dien	-1793
ectu	-1794
▁biologique	-1795
▁obtenir	-1796
.,	-1797
▁Ce	-1798
▁exemple	-1799
▁gam	-1800
▁angl	-1801
origine	-1802
▁concurrence	-1803
ak	-1804
▁télécomm	-1805
▁beaucoup	-1806
▁marchandises	-1807
pie	-1808
atis	-1809
▁page	-1810
▁nouvelles	-1811
1-0	-1812
Britannique	-1813
▁or	-1814
cellence	-1815
▁version	-1816
▁lois	-1817
ock	-1818
yant	-1819
▁capit	-1820
,4	-1821
oix	-1822
ination	-1823
bu	-1824
▁ris	-1825
▁font	-1826
lication	-1827
CI	-1828
▁terme	-1829
ption	-1830
▁industri	-1831
az	-1832
▁Premi	-1833
▁Program	-1834
▁plupart	-1835
5)	-1836
▁probl	-1837
Agriculture	-1838
mer	-1839
▁ret	-1840
▁meille	-1841
5-0	-1842
eng	-1843
ubli	-1844
acité	-1845
▁après	-1846
▁Nouvelle	-1847
,2	-1848
RO	-1849
oins	-1850
▁fav	-1851
▁dépens	-1852
3-0	-1853
▁restaurants	-1854
▁ven	-1855
▁organismes	-1856
eunes	-1857
▁offre	-1858
ick	-1859
▁mis	-1860
▁cher	-1861
ouchés	-1862
érence	-1863
▁exigences	-1864
▁mai	-1865
▁liste	-1866
anque	-1867
▁animaux	-1868
▁Th	-1869
▁compé	-1870
anv	-1871
ître	-1872
▁imp	-1873
ico	-1874
enre	-1875
▁sta	-1876
▁conserv	-1877
AS	-1878
▁Statis	-1879
▁européenne	-1880
ternational	-1881
oli	-1882
▁hom	-1883
▁maj	-1884
▁Mich	-1885
▁grandes	-1886
▁situation	-1887
,7	-1888
▁première	-1889
▁expé	-1890
téress	-1891
▁Rapport	-1892
▁aid	-1893
▁commercial	-1894
,6	-1895
amp	-1896
cup	-1897
uile	-1898
▁cinq	-1899
orité	-1900
ttawa	-1901
▁2006-09	-1902
▁marques	-1903
▁restauration	-1904
tier	-1905
▁sig	-1906
▁total	-1907
▁Vi	-1908
70	-1909
▁besoins	-1910
▁oc	-1911
▁déj	-1912
ochton	-1913
▁contribu	-1914
▁mois	-1915
▁Cette	-1916
▁documents	-1917
oût	-1918
▁lui	-1919
aide	-1920
▁visant	-1921
▁disponi	-1922
▁Produits	-1923
▁conditions	-1924
▁Qu	-1925
ensi	-1926
▁vend	-1927
▁Pêches	-1928
▁provenance	-1929
etage	-1930
▁alors	-1931
▁détaillants	-1932
ub	-1933
anvier	-1934
erci	-1935
▁souv	-1936
itaire	-1937
▁conseil	-1938
rastructure	-1939
▁gros	-1940
▁For	-1941
inter	-1942
▁nombreux	-1943
▁importante	-1944
rab	-1945
RE	-1946
ask	-1947
uve	-1948
▁ord	-1949
▁celui	-1950
▁jeunes	-1951
▁projets	-1952
atre	-1953
▁Océ	-1954
,9	-1955
-30	-1956
5-1	-1957
uer	-1958
▁appu	-1959
▁entreprise	-1960
ime	-1961
▁posi	-1962
▁Trans	-1963
▁ayant	-1964
▁enreg	-1965
▁compar	-1966
▁quanti	-1967
▁PIB	-1968
▁Haut	-1969
cembre	-1970
avantage	-1971
▁principales	-1972
▁mondiale	-1973
érable	-1974
IT	-1975
▁maintenant	-1976
▁règlements	-1977
▁New	-1978
▁sucre	-1979
▁nord	-1980
▁Jean	-1981
▁supéri	-1982
▁communaut	-1983
aume	-1984
▁améli	-1985
▁principal	-1986
▁60	-1987
▁oct	-1988
▁juin	-1989
▁supp	-1990
issant	-1991
▁gamme	-1992
▁représente	-1993
lig	-1994
▁fédérale	-1995
▁poissons	-1996
72	-1997
Est	-1998
ril	-1999
ore	-2000
ariat	-2001
▁permis	-2002
uide	-2003
▁lig	-2004
Selon	-2005
avoir	-2006
▁reconn	-2007
ges	-2008
ront	-2009
tient	-2010
▁Mont	-2011
▁conform	-2012
▁déf	-2013
ém	-2014
Uni	-2015
lée	-2016
▁40	-2017
▁Nom	-2018
▁aur	-2019
anges	-2020
assade	-2021
▁propos	-2022
diff	-2023
▁Steph	-2024
30	-2025
▁|	-2026
off	-2027
▁%."	-2028
▁respec	-2029
▁lu	-2030
nerg	-2031
▁volume	-2032
▁officielles	-2033
▁Son	-2034
▁viv	-2035
▁deme	-2036
▁fil	-2037
▁plain	-2038
▁Canadiens	-2039
are	-2040
nés	-2041
▁collec	-2042
wan	-2043
▁ingré	-2044
▁vertu	-2045
▁effectu	-2046
diffusion	-2047
▁Déc	-2048
ression	-2049
▁Association	-2050
art	-2051
▁Direc	-2052
▁sociétés	-2053
▁atlantique	-2054
▁seront	-2055
▁intéress	-2056
ministration	-2057
▁(8	-2058
ccès	-2059
▁AAC	-2060
▁celle	-2061
▁clients	-2062
dit	-2063
cent	-2064
moine	-2065
Agence	-2066
atrimoine	-2067
▁sensi	-2068
▁ép	-2069
ël	-2070
▁w	-2071
▁souvent	-2072
6-2	-2073
sident	-2074
▁modif	-2075
adresse	-2076
▁Royaume	-2077
▁principalement	-2078
▁donc	-2079
▁puis	-2080
▁radiodiffusion	-2081
▁mani	-2082
▁coûts	-2083
agn	-2084
run	-2085
ah	-2086
▁niveau	-2087
▁Stephen	-2088
èle	-2089
▁poss	-2090
▁communi	-2091
▁présente	-2092
eff	-2093
pte	-2094
▁liv	-2095
▁Océans	-2096
▁Institu	-2097
▁Bo	-2098
▁Ces	-2099
œuvre	-2100
▁tels	-2101
▁Micha	-2102
▁forte	-2103
▁oblig	-2104
▁débouchés	-2105
▁har	-2106
▁Soci	-2107
▁certaines	-2108
▁grands	-2109
▁traite	-2110
▁habitant	-2111
▁prog	-2112
atif	-2113
▁Harper	-2114
▁réalis	-2115
utilisation	-2116
▁distributeurs	-2117
▁compl	-2118
▁terre	-2119
vestissement	-2120
15	-2121
alyse	-2122
anger	-2123
anitob	-2124
ansion	-2125
▁étrangers	-2126
▁réglementation	-2127
mig	-2128
illi	-2129
tériel	-2130
▁Brésil	-2131
▁nouvelle	-2132
xe	-2133
5-2	-2134
ose	-2135
▁eng	-2136
▁nos	-2137
▁élevé	-2138
▁justice	-2139
▁spécialis	-2140
vé	-2141
▁consult	-2142
▁Mal	-2143
ud	-2144
oud	-2145
▁privée	-2146
▁soient	-2147
amen	-2148
▁mars	-2149
ochtones	-2150
▁pendant	-2151
ément	-2152
ran	-2153
jours	-2154
▁prom	-2155
action	-2156
▁secteurs	-2157
02	-2158
Al	-2159
Espagne	-2160
▁mention	-2161
▁affaires	-2162
▁décembre	-2163
▁pi	-2164
▁fabrication	-2165
âce	-2166
année	-2167
▁commiss	-2168
▁technologie	-2169
.:	-2170
▁tant	-2171
▁2003,	-2172
14	-2173
ICan	-2174
iversi	-2175
▁rempl	-2176
article	-2177
▁dépenses	-2178
▁poin	-2179
▁quatre	-2180
▁deuxième	-2181
ché	-2182
▁can	-2183
évrier	-2184
▁défin	-2185
ib	-2186
▁Z	-2187
ature	-2188
lande	-2189
tariat	-2190
▁Secré	-2191
.1	-2192
cul	-2193
anada	-2194
▁béné	-2195
▁/	-2196
uridi	-2197
▁financement	-2198
▁%,	-2199
▁log	-2200
▁janvier	-2201
ug	-2202
cos	-2203
gov	-2204
nov	-2205
liqu	-2206
▁roy	-2207
▁faible	-2208
amb	-2209
rin	-2210
ète	-2211
▁contrôle	-2212
▁voyage	-2213
▁question	-2214
;"	-2215
fil	-2216
nel	-2217
itre	-2218
atique	-2219
▁domaine	-2220
▁résultats	-2221
▁fem	-2222
▁Nouve	-2223
▁étant	-2224
▁change	-2225
▁développ	-2226
▁Programme	-2227
▁transformés	-2228
rant	-2229
ingap	-2230
▁Isra	-2231
▁Philipp	-2232
▁laitiers	-2233
▁recherches	-2234
euille	-2235
iennes	-2236
▁avait	-2237
▁repas	-2238
▁observ	-2239
euf	-2240
▁CICan	-2241
▁28	-2242
usines	-2243
vembre	-2244
▁titre	-2245
Allemagne	-2246
▁dispositions	-2247
ok	-2248
▁relations	-2249
.2	-2250
▁all	-2251
tation	-2252
▁2002,	-2253
▁Ottawa	-2254
▁pourraient	-2255
...	-2256
▁Du	-2257
obre	-2258
▁2007-10	-2259
rop	-2260
ffice	-2261
▁enregist	-2262
▁discrimination	-2263
▁À	-2264
▁France	-2265
▁provenant	-2266
▁fabricants	-2267
▁pre	-2268
▁26	-2269
▁Cent	-2270
▁règles	-2271
expl	-2272
▁fig	-2273
▁mod	-2274
inois	-2275
▁Services	-2276
aig	-2277
▁proc	-2278
▁investi	-2279
▁langues	-2280
▁gouverne	-2281
▁Patrimoine	-2282
▁ingrédients	-2283
▁IN	-2284
èces	-2285
▁notre	-2286
▁établissements	-2287
ark	-2288
▁sp	-2289
▁renf	-2290
▁transf	-2291
illet	-2292
▁déjà	-2293
▁davantage	-2294
tac	-2295
ienne	-2296
▁tradition	-2297
▁enf	-2298
▁élec	-2299
▁initi	-2300
étiquetage	-2301
▁Secrétariat	-2302
ting	-2303
▁importants	-2304
▁LA	-2305
tout	-2306
▁caf	-2307
▁2001,	-2308
iversité	-2309
▁27	-2310
▁Fl	-2311
expé	-2312
élev	-2313
Union	-2314
sence	-2315
▁cult	-2316
--------	-2317
▁groupes	-2318
▁Excellence	-2319
▁actuellement	-2320
▁law	-2321
oti	-2322
▁den	-2323
copie	-2324
▁techn	-2325
▁modifi	-2326
▁prendre	-2327
-200	-2328
anitoba	-2329
▁associ	-2330
▁territ	-2331
▁toujours	-2332
▁technolog	-2333
,1	-2334
▁elles	-2335
▁compos	-2336
▁céréales	-2337
▁provinci	-2338
arge	-2339
▁biens	-2340
her	-2341
ori	-2342
▁auc	-2343
▁sol	-2344
istan	-2345
▁rése	-2346
ableau	-2347
ennent	-2348
▁trouver	-2349
investissement	-2350
ctu	-2351
▁Pré	-2352
bilités	-2353
▁surgel	-2354
sw	-2355
cer	-2356
▁atteint	-2357
écu	-2358
▁Gr	-2359
▁ref	-2360
ception	-2361
▁29	-2362
▁matières	-2363
Si	-2364
▁"«	-2365
cont	-2366
▁possible	-2367
odes	-2368
▁pai	-2369
perçu	-2370
▁1999	-2371
issement	-2372
▁Information	-2373
▁%),	-2374
▁vég	-2375
▁partir	-2376
▁congelés	-2377
application	-2378
ustr	-2379
léments	-2380
▁appuie	-2381
▁royale	-2382
▁relatives	-2383
ène	-2384
anie	-2385
orts	-2386
ingapour	-2387
non	-2388
▁am	-2389
itoy	-2390
ones	-2391
........	-2392
▁facteurs	-2393
▁75	-2394
aisse	-2395
tiers	-2396
▁préf	-2397
uss	-2398
▁Ad	-2399
▁directeur	-2400
:"	-2401
6-1	-2402
etnam	-2403
▁juridi	-2404
bur	-2405
▁reg	-2406
ry	-2407
▁cuis	-2408
▁faut	-2409
▁celles	-2410
mbassade	-2411
▁représentent	-2412
ypoth	-2413
roître	-2414
cool	-2415
urent	-2416
ession	-2417
▁essenti	-2418
IE	-2419
td	-2420
duc	-2421
▁cu	-2422
eures	-2423
tière	-2424
▁centre	-2425
ède	-2426
▁21	-2427
ëlle	-2428
▁rôle	-2429
intérêt	-2430
▁Comité	-2431
▁connaî	-2432
▁1.	-2433
nelle	-2434
▁Statistique	-2435
erts	-2436
copieur	-2437
▁mettre	-2438
▁visite	-2439
▁Michaëlle	-2440
▁formation	-2441
▁internationaux	-2442
actér	-2443
▁propri	-2444
77	-2445
4-0	-2446
▁Tra	-2447
▁Dans	-2448
▁collab	-2449
▁février	-2450
riv	-2451
ège	-2452
ades	-2453
▁médi	-2454
entrée	-2455
intention	-2456
▁Af	-2457
▁donné	-2458
▁besoin	-2459
▁cou	-2460
▁véri	-2461
dement	-2462
88	-2463
pect	-2464
▁objec	-2465
▁terres	-2466
40	-2467
▁Pour	-2468
▁surtout	-2469
résor	-2470
▁Contact	-2471
Cependant	-2472
▁environnement	-2473
▁poi	-2474
▁adop	-2475
▁suite	-2476
▁Import	-2477
▁chaînes	-2478
▁mul	-2479
▁grains	-2480
▁matériel	-2481
▁naturelles	-2482
▁Philippines	-2483
LE	-2484
6-0	-2485
▁to	-2486
médi	-2487
Cette	-2488
▁Ali	-2489
lique	-2490
▁Pays	-2491
▁province	-2492
fr	-2493
Toute	-2494
agement	-2495
▁2006-08	-2496
ile	-2497
MENT	-2498
quête	-2499
▁Gouver	-2500
▁novembre	-2501
▁Déclaration	-2502
roit	-2503
▁méth	-2504
▁mi	-2505
emploi	-2506
▁Trésor	-2507
▁annuelle	-2508
asp	-2509
éro	-2510
ocol	-2511
pose	-2512
▁emball	-2513
Amérique	-2514
▁install	-2515
ueur	-2516
▁Foods	-2517
▁espagn	-2518
ork	-2519
▁hu	-2520
▁sus	-2521
▁vig	-2522
atifs	-2523
tribu	-2524
▁rapidement	-2525
▁relativement	-2526
▁Site	-2527
eté	-2528
rev	-2529
▁conna	-2530
▁annuel	-2531
▁pommes	-2532
▁participation	-2533
pan	-2534
berta	-2535
▁fournir	-2536
▁nécessaire	-2537
▁poursu	-2538
▁autoris	-2539
importance	-2540
▁Singapour	-2541
time	-2542
pport	-2543
▁charg	-2544
▁effet	-2545
▁termes	-2546
▁française	-2547
▁Ressources	-2548
▁possibilités	-2549
▁gouvernements	-2550
if	-2551
iné	-2552
▁côte	-2553
▁milieu	-2554
▁conséqu	-2555
▁acheteurs	-2556
66	-2557
ela	-2558
▁exc	-2559
▁rev	-2560
▁boeuf	-2561
▁femmes	-2562
▁capacité	-2563
▁caractér	-2564
qué	-2565
▁1998	-2566
alités	-2567
▁forme	-2568
▁rouge	-2569
▁végét	-2570
▁certific	-2571
▁pratiques	-2572
Ces	-2573
▁Ind	-2574
runsw	-2575
▁rang	-2576
▁terr	-2577
▁Chili	-2578
▁crimin	-2579
▁preuve	-2580
▁taille	-2581
runswick	-2582
▁Sécurité	-2583
▁répondre	-2584
▁cet	-2585
▁outre	-2586
ancouver	-2587
Toutefois	-2588
▁importateurs	-2589
br	-2590
mis	-2591
eront	-2592
▁parties	-2593
▁naturels	-2594
▁35	-2595
▁Jo	-2596
anes	-2597
▁met	-2598
approvision	-2599
▁id	-2600
dfait	-2601
éraux	-2602
▁cause	-2603
▁libre	-2604
▁demand	-2605
▁élevés	-2606
▁Société	-2607
▁quelques	-2608
▁suivants	-2609
▁tendance	-2610
ola	-2611
étu	-2612
▁jou	-2613
▁oeu	-2614
atiques	-2615
▁maison	-2616
DF	-2617
mae	-2618
▁hau	-2619
▁mor	-2620
▁effic	-2621
▁mieux	-2622
eter	-2623
▁vra	-2624
maeci	-2625
migration	-2626
▁catégorie	-2627
.-	-2628
uf	-2629
auté	-2630
▁type	-2631
nergie	-2632
▁enfants	-2633
ja	-2634
▁fins	-2635
▁petits	-2636
▁Nouveau	-2637
▁2.	-2638
▁nutri	-2639
▁2007-08	-2640
▁500	-2641
▁décision	-2642
▁scientif	-2643
expédition	-2644
▁directement	-2645
▁déclar	-2646
▁humaines	-2647
ao	-2648
dou	-2649
rad	-2650
▁%)	-2651
ires	-2652
iennent	-2653
85	-2654
try	-2655
érer	-2656
▁Inf	-2657
▁env	-2658
▁chef	-2659
▁desti	-2660
itaires	-2661
▁Transports	-2662
▁augmentation	-2663
▁bov	-2664
▁unique	-2665
▁Corp	-2666
augment	-2667
▁chinois	-2668
▁eu	-2669
▁nda	-2670
améli	-2671
▁Trade	-2672
tlantique	-2673
▁Vancouver	-2674
22	-2675
méro	-2676
▁riz	-2677
Comme	-2678
andis	-2679
▁seul	-2680
▁grâce	-2681
▁prêts	-2682
▁phy	-2683
html	-2684
tage	-2685
êtes	-2686
▁Bar	-2687
▁Rus	-2688
▁»."	-2689
èrent	-2690
▁anti	-2691
▁2002."	-2692
▁communiquer	-2693
▁économiques	-2694
rganis	-2695
▁chaîne	-2696
▁préparés	-2697
▁génétique	-2698
▁problèmes	-2699
▁reç	-2700
▁sources	-2701
▁33	-2702
▁appel	-2703
▁prévoit	-2704
environnement	-2705
Inde	-2706
autre	-2707
gu	-2708
aff	-2709
▁"(	-2710
▁vise	-2711
▁aider	-2712
▁avril	-2713
▁régime	-2714
▁savoir	-2715
▁distributeur	-2716
▁far	-2717
roupe	-2718
ulaire	-2719
▁pâtes	-2720
ération	-2721
▁2007-07	-2722
EC	-2723
▁is	-2724
▁man	-2725
▁tari	-2726
ptembre	-2727
▁actuelle	-2728
Bien	-2729
achat	-2730
venue	-2731
▁octobre	-2732
enez	-2733
▁cam	-2734
▁parmi	-2735
cription	-2736
acts	-2737
▁Pri	-2738
▁Genre	-2739
▁passé	-2740
uni	-2741
▁Te	-2742
érés	-2743
armerie	-2744
▁habitu	-2745
▁culture	-2746
▁diverses	-2747
17	-2748
▁99	-2749
▁tax	-2750
▁Gend	-2751
▁japon	-2752
oig	-2753
aceu	-2754
tenti	-2755
Europe	-2756
armaceu	-2757
▁succès	-2758
▁Gendarmerie	-2759
25	-2760
▁garanti	-2761
▁Télécopieur	-2762
▁International	-2763
info	-2764
▁appar	-2765
▁inform	-2766
tiennent	-2767
▁sensibil	-2768
Af	-2769
▁Bio	-2770
▁sein	-2771
agraph	-2772
assurer	-2773
▁points	-2774
▁totale	-2775
▁modifications	-2776
ina	-2777
▁45	-2778
pond	-2779
▁Dan	-2780
▁aide	-2781
▁tandis	-2782
▁denrées	-2783
▁juillet	-2784
▁Manitoba	-2785
▁document	-2786
CH	-2787
agit	-2788
quis	-2789
▁café	-2790
▁date	-2791
▁allem	-2792
euillez	-2793
▁Finances	-2794
▁remplac	-2795
▁destinés	-2796
▁caractéris	-2797
▁70	-2798
▁locaux	-2799
▁DES	-2800
▁Rés	-2801
occup	-2802
▁diminué	-2803
99	-2804
▁Sy	-2805
aste	-2806
▁cir	-2807
▁inv	-2808
▁mand	-2809
ington	-2810
▁commen	-2811
▁réfrig	-2812
▁comprend	-2813
▁sciences	-2814
▁paragraph	-2815
▁financière	-2816
,0	-2817
▁mén	-2818
▁ple	-2819
▁Port	-2820
▁particulier	-2821
▁◦	-2822
onds	-2823
orités	-2824
▁gross	-2825
▁étiqu	-2826
▁Banque	-2827
▁atteindre	-2828
60	-2829
étrang	-2830
atoires	-2831
▁homard	-2832
Une	-2833
▁(7	-2834
ulle	-2835
opération	-2836
▁Ambassade	-2837
▁généralement	-2838
18	-2839
▁malad	-2840
Des	-2841
hab	-2842
ides	-2843
▁(200	-2844
▁Source	-2845
ustralie	-2846
▁condition	-2847
▁règlement	-2848
▁destination	-2849
EX	-2850
iner	-2851
▁négoci	-2852
▁ajoutée	-2853
▁exploit	-2854
▁potenti	-2855
▁revenus	-2856
▁présence	-2857
)"	-2858
▁DU	-2859
▁Pr	-2860
▁cô	-2861
blir	-2862
objet	-2863
▁comb	-2864
▁parce	-2865
▁2005."	-2866
▁certification	-2867
IA	-2868
▁Gu	-2869
embre	-2870
▁fournit	-2871
▁déterminer	-2872
44	-2873
Ex	-2874
▁Mac	-2875
▁obs	-2876
atisf	-2877
oront	-2878
▁bonne	-2879
▁ligne	-2880
échelle	-2881
▁existe	-2882
▁concent	-2883
PA	-2884
cid	-2885
onde	-2886
heure	-2887
▁laque	-2888
▁Russie	-2889
▁centres	-2890
▁institu	-2891
▁offrent	-2892
▁gouverneure	-2893
GM	-2894
▁Be	-2895
▁cal	-2896
▁minist	-2897
▁quelque	-2898
alif	-2899
▁bil	-2900
▁fraî	-2901
avenir	-2902
oronto	-2903
▁efforts	-2904
▁rencont	-2905
ciens	-2906
▁Hong	-2907
▁devant	-2908
▁moment	-2909
▁protég	-2910
étranger	-2911
▁z	-2912
urance	-2913
▁Premier	-2914
▁favoris	-2915
23	-2916
ïs	-2917
ash	-2918
▁ET	-2919
ager	-2920
▁Ltd	-2921
cosse	-2922
▁facil	-2923
▁laquelle	-2924
▁quantité	-2925
cour	-2926
erta	-2927
▁chez	-2928
▁four	-2929
▁centr	-2930
▁jours	-2931
Brunswick	-2932
▁communication	-2933
▁Po	-2934
veur	-2935
▁rend	-2936
irection	-2937
▁attribu	-2938
RI	-2939
200	-2940
▁installations	-2941
Ch	-2942
cs	-2943
cle	-2944
ghan	-2945
▁pén	-2946
▁œuvre	-2947
lections	-2948
▁Vietnam	-2949
▁volaille	-2950
-31	-2951
Bas	-2952
pré	-2953
ocolat	-2954
▁statis	-2955
truct	-2956
▁achats	-2957
blissement	-2958
▁provinces	-2959
entreprises	-2960
ear	-2961
▁coll	-2962
▁maïs	-2963
▁trouve	-2964
▁lorsque	-2965
▁traitement	-2966
▁disposition	-2967
▁mél	-2968
▁expos	-2969
▁tendances	-2970
esti	-2971
uela	-2972
askat	-2973
isses	-2974
▁coût	-2975
ricaine	-2976
▁bureau	-2977
hy	-2978
xim	-2979
érie	-2980
▁déli	-2981
▁Guide	-2982
▁fonds	-2983
▁serait	-2984
▁bénéfici	-2985
▁personnels	-2986
75	-2987
amé	-2988
▁soja	-2989
cemment	-2990
▁considérable	-2991
▁internationales	-2992
.3	-2993
90	-2994
ÉS	-2995
▁fl	-2996
quel	-2997
environ	-2998
lection	-2999
respond	-3000
AI	-3001
▁83	-3002
réal	-3003
▁Venez	-3004
▁satisf	-3005
▁voyageurs	-3006
▁John	-3007
▁2007-09	-3008
▁compagn	-3009
▁Industrie	-3010
▁correspond	-3011
An	-3012
cus	-3013
▁sû	-3014
▁hal	-3015
▁liens	-3016
▁Europe	-3017
▁consac	-3018
▁Direction	-3019
▁constitue	-3020
Association	-3021
▁but	-3022
mière	-3023
▁ethn	-3024
▁Terre	-3025
▁réseau	-3026
▁2006-07	-3027
▁vigueur	-3028
▁employés	-3029
""	-3030
ana	-3031
▁PO	-3032
▁sud	-3033
▁pris	-3034
Écosse	-3035
▁septembre	-3036
las	-3037
orti	-3038
tées	-3039
voir	-3040
▁six	-3041
▁vos	-3042
▁conv	-3043
▁dire	-3044
ational	-3045
▁majorité	-3046
▁président	-3047
ck	-3048
onne	-3049
▁from	-3050
▁va	-3051
▁esp	-3052
▁conj	-3053
▁proch	-3054
▁publics	-3055
▁changements	-3056
▁responsable	-3057
▁Gro	-3058
entine	-3059
nelles	-3060
▁connu	-3061
▁Israël	-3062
▁douane	-3063
▁conserve	-3064
▁rapports	-3065
aw	-3066
ld	-3067
▁occ	-3068
▁choix	-3069
▁langue	-3070
▁Toronto	-3071
83	-3072
▁vic	-3073
▁reste	-3074
otidien	-3075
▁médica	-3076
iversification	-3077
DE	-3078
ève	-3079
ural	-3080
▁dél	-3081
▁simp	-3082
ticles	-3083
▁2003."	-3084
▁Profil	-3085
▁baisse	-3086
▁soutien	-3087
▁Allemagne	-3088
▁avantages	-3089
▁alcool	-3090
▁électron	-3091
▁responsabilité	-3092
▁Es	-3093
▁bl	-3094
alisé	-3095
titude	-3096
▁impos	-3097
▁continu	-3098
▁importé	-3099
3)	-3100
▁Br	-3101
▁div	-3102
talie	-3103
▁secon	-3104
▁section	-3105
▁milliard	-3106
▁profession	-3107
▁technologies	-3108
▁op	-3109
ypothè	-3110
▁estim	-3111
▁retra	-3112
ulletin	-3113
roduction	-3114
▁Venezuela	-3115
▁toutefois	-3116
82	-3117
DU	-3118
RES	-3119
▁3.	-3120
▁Tex	-3121
▁gaz	-3122
▁boul	-3123
▁prép	-3124
▁précis	-3125
▁risque	-3126
tivement	-3127
▁manière	-3128
isi	-3129
Nous	-3130
leurs	-3131
rgentine	-3132
▁segment	-3133
▁Montréal	-3134
▁administ	-3135
▁gouvernementaux	-3136
▁lit	-3137
illon	-3138
▁fron	-3139
▁rais	-3140
▁obten	-3141
▁2004."	-3142
novation	-3143
ip	-3144
CAN	-3145
jour	-3146
▁uti	-3147
▁Mark	-3148
▁fais	-3149
truction	-3150
▁Espagne	-3151
emballage	-3152
▁récemment	-3153
QUE	-3154
har	-3155
urb	-3156
▁The	-3157
▁rév	-3158
▁poul	-3159
▁moder	-3160
▁lesque	-3161
▁cultures	-3162
CA	-3163
aisie	-3164
enneté	-3165
▁chois	-3166
exploit	-3167
▁diffic	-3168
▁français	-3169
▁nombreuses	-3170
sid	-3171
▁bar	-3172
▁mondial	-3173
▁cul	-3174
▁pay	-3175
examen	-3176
▁petites	-3177
▁anglaise	-3178
43	-3179
lex	-3180
ffis	-3181
▁dix	-3182
icile	-3183
égard	-3184
ocution	-3185
▁mandat	-3186
▁commissaire	-3187
67	-3188
▁80	-3189
ueil	-3190
▁sauv	-3191
▁prises	-3192
▁source	-3193
itoyenneté	-3194
▁différents	-3195
▁importantes	-3196
dic	-3197
rim	-3198
aces	-3199
▁Rép	-3200
ennes	-3201
▁Trav	-3202
▁sign	-3203
▁supplé	-3204
▁études	-3205
▁éléments	-3206
Université	-3207
ka	-3208
isées	-3209
▁indép	-3210
▁graines	-3211
▁presque	-3212
▁réduire	-3213
ographique	-3214
▁Pl	-3215
▁Mus	-3216
▁rue	-3217
▁Jour	-3218
▁aéri	-3219
▁avons	-3220
▁précéd	-3221
▁plaintes	-3222
▁rendement	-3223
▁importance	-3224
▁communautés	-3225
▁collaboration	-3226
▁Aut	-3227
▁accès	-3228
▁chiffre	-3229
TA	-3230
chent	-3231
ètres	-3232
▁avis	-3233
▁salu	-3234
▁répar	-3235
▁Center	-3236
▁direct	-3237
▁augmenter	-3238
▁procédure	-3239
▁catégories	-3240
éb	-3241
ules	-3242
quipe	-3243
▁signi	-3244
établir	-3245
▁membre	-3246
▁totales	-3247
ouverture	-3248
▁sc	-3249
▁Mer	-3250
▁Sal	-3251
eries	-3252
issariat	-3253
▁2007-04-1	-3254
dess	-3255
rain	-3256
▁Rég	-3257
▁etc	-3258
▁Plus	-3259
▁2006,	-3260
énergie	-3261
▁création	-3262
▁japonais	-3263
▁consulter	-3264
uk	-3265
▁PRO	-3266
▁dit	-3267
▁lut	-3268
après	-3269
emark	-3270
▁ense	-3271
▁tenu	-3272
▁petit	-3273
▁position	-3274
▁échanges	-3275
42	-3276
▁gé	-3277
▁CAN	-3278
▁thé	-3279
▁hist	-3280
▁Ontario	-3281
▁dernier	-3282
▁demandes	-3283
▁premières	-3284
▁paragraphe	-3285
▁médicaments	-3286
▁représentant	-3287
86	-3288
ley	-3289
▁té	-3290
aint	-3291
fier	-3292
icerie	-3293
▁poids	-3294
élevage	-3295
▁assurer	-3296
▁2006-11-2	-3297
▁officielle	-3298
▁investissements	-3299
cons	-3300
▁équ	-3301
cuits	-3302
▁privé	-3303
▁donner	-3304
ghanistan	-3305
▁interven	-3306
▁préoccup	-3307
oie	-3308
raî	-3309
▁hy	-3310
huile	-3311
▁fisc	-3312
attants	-3313
▁teneur	-3314
expansion	-3315
▁transfert	-3316
▁consommateur	-3317
administration	-3318
▁somm	-3319
▁texte	-3320
onnance	-3321
CEE	-3322
esp	-3323
man	-3324
Asie	-3325
raux	-3326
élab	-3327
▁haut	-3328
employ	-3329
gation	-3330
▁concerne	-3331
5,	-3332
âge	-3333
▁CON	-3334
▁défense	-3335
▁autochtones	-3336
uté	-3337
▁lanc	-3338
rature	-3339
▁nature	-3340
▁profit	-3341
▁passant	-3342
▁espagnol	-3343
Atlantique	-3344
▁nécessaires	-3345
▁représentants	-3346
aug	-3347
son	-3348
▁90	-3349
▁Acc	-3350
▁bou	-3351
brité	-3352
ulteurs	-3353
▁soulig	-3354
▁2006-03-2	-3355
▁producteur	-3356
);	-3357
aj	-3358
▁gens	-3359
oriste	-3360
▁numéro	-3361
▁Univers	-3362
▁pratique	-3363
▁fournisseur	-3364
ron	-3365
umé	-3366
èce	-3367
utôt	-3368
▁pét	-3369
▁navig	-3370
▁certain	-3371
▁offerts	-3372
▁présenter	-3373
uli	-3374
▁Av	-3375
euve	-3376
texte	-3377
▁lorsqu	-3378
▁navires	-3379
istrement	-3380
▁partenaires	-3381
AP	-3382
fe	-3383
pt	-3384
oudre	-3385
▁viol	-3386
▁donne	-3387
analyse	-3388
▁cherche	-3389
▁viandes	-3390
▁utilisés	-3391
ger	-3392
▁Bi	-3393
dici	-3394
orld	-3395
▁opé	-3396
▁délég	-3397
usiness	-3398
▁Aperçu	-3399
▁limité	-3400
▁2006-10-1	-3401
▁extérieur	-3402
▁personnel	-3403
Cons	-3404
ublic	-3405
▁agent	-3406
▁social	-3407
▁fédéraux	-3408
▁prévention	-3409
▁Exportations	-3410
ly	-3411
100	-3412
oss	-3413
▁42	-3414
▁ax	-3415
rage	-3416
habit	-3417
ouvoir	-3418
▁super	-3419
▁évalu	-3420
▁plutôt	-3421
▁investit	-3422
63	-3423
89	-3424
cl	-3425
rès	-3426
▁ress	-3427
▁soli	-3428
▁heures	-3429
▁suivantes	-3430
▁disponible	-3431
ule	-3432
food	-3433
▁gén	-3434
▁lib	-3435
▁pen	-3436
▁sex	-3437
ambre	-3438
enreg	-3439
▁accep	-3440
6)	-3441
orn	-3442
lesco	-3443
▁accr	-3444
▁évent	-3445
▁continue	-3446
▁43	-3447
ands	-3448
euses	-3449
▁Char	-3450
▁vins	-3451
cident	-3452
▁sembl	-3453
échange	-3454
érences	-3455
▁anglais	-3456
▁juridique	-3457
▁objectifs	-3458
hui	-3459
ian	-3460
▁certificat	-3461
▁concurrenti	-3462
osi	-3463
▁eux	-3464
▁Code	-3465
▁Disc	-3466
▁term	-3467
keting	-3468
▁halal	-3469
▁types	-3470
▁approu	-3471
▁Danemark	-3472
▁salubrité	-3473
▁stratégie	-3474
za	-3475
▁chim	-3476
chewan	-3477
▁intég	-3478
▁ouver	-3479
▁stock	-3480
▁vendre	-3481
▁2006-04-2	-3482
askatchewan	-3483
rie	-3484
veill	-3485
▁crit	-3486
▁pers	-3487
▁moyens	-3488
▁lumière	-3489
augmentation	-3490
ary	-3491
iche	-3492
êmes	-3493
▁juge	-3494
▁début	-3495
▁prend	-3496
aïlande	-3497
▁principale	-3498
bes	-3499
ret	-3500
▁Mc	-3501
▁br	-3502
aill	-3503
ates	-3504
▁moi	-3505
illeurs	-3506
47	-3507
ast	-3508
▁65	-3509
éder	-3510
naire	-3511
▁Coun	-3512
▁porte	-3513
Afrique	-3514
▁améliorer	-3515
▁constituent	-3516
▁préparation	-3517
4,	-3518
16)	-3519
charg	-3520
▁Kong	-3521
▁ville	-3522
avillon	-3523
ublique	-3524
▁common	-3525
▁durant	-3526
ducation	-3527
▁domaines	-3528
rganisation	-3529
ack	-3530
œuf	-3531
▁Sem	-3532
jourd	-3533
▁gras	-3534
▁portant	-3535
▁connaître	-3536
▁fabricant	-3537
▁pharmaceu	-3538
▁Diversification	-3539
onés	-3540
▁agents	-3541
▁offrir	-3542
établissement	-3543
OU	-3544
▁gu	-3545
▁Man	-3546
▁emb	-3547
étail	-3548
▁York	-3549
▁prob	-3550
▁régional	-3551
▁comprennent	-3552
pro	-3553
▁us	-3554
tils	-3555
▁Ber	-3556
▁San	-3557
▁tab	-3558
▁salon	-3559
issante	-3560
▁Office	-3561
▁distin	-3562
▁vendus	-3563
ablement	-3564
▁recommandons	-3565
aqu	-3566
dro	-3567
Neuve	-3568
▁souh	-3569
astronom	-3570
▁ailleurs	-3571
▁mexicain	-3572
▁utiliser	-3573
expression	-3574
ote	-3575
tip	-3576
acao	-3577
vidu	-3578
▁août	-3579
isions	-3580
▁Entre	-3581
▁sites	-3582
▁instru	-3583
▁poulet	-3584
2)	-3585
▁""	-3586
ical	-3587
sique	-3588
▁coup	-3589
Canada	-3590
angerie	-3591
▁telles	-3592
▁risques	-3593
▁surgelés	-3594
▁2006-09-2	-3595
45	-3596
gl	-3597
orde	-3598
▁vit	-3599
ulaires	-3600
▁famili	-3601
épicerie	-3602
▁législatif	-3603
87	-3604
LI	-3605
cts	-3606
▁Ils	-3607
rince	-3608
▁exam	-3609
▁tiers	-3610
▁obstac	-3611
▁réserv	-3612
▁contrib	-3613
ativement	-3614
▁chocolat	-3615
▁University	-3616
▁présentation	-3617
▁Box	-3618
▁voie	-3619
ortion	-3620
▁vaste	-3621
cession	-3622
ographie	-3623
▁cuisine	-3624
▁Nouvelles	-3625
▁supérieure	-3626
aie	-3627
rid	-3628
▁dos	-3629
▁pol	-3630
cessi	-3631
temps	-3632
▁chac	-3633
▁client	-3634
▁ménages	-3635
▁établir	-3636
▁Discours	-3637
▁dernière	-3638
92	-3639
SI	-3640
gh	-3641
▁».	-3642
avis	-3643
lées	-3644
yons	-3645
afood	-3646
▁Prix	-3647
▁dépos	-3648
▁pertin	-3649
chnology	-3650
▁souhait	-3651
▁retraite	-3652
▁nour	-3653
▁encour	-3654
▁kg	-3655
dire	-3656
▁Gra	-3657
appui	-3658
▁clim	-3659
▁coord	-3660
▁récol	-3661
▁trait	-3662
hypothè	-3663
visions	-3664
▁National	-3665
▁Thaïlande	-3666
▁Corporation	-3667
33	-3668
▁Mon	-3669
▁sûre	-3670
naires	-3671
▁intérêt	-3672
▁Parlement	-3673
▁contenant	-3674
▁permettre	-3675
▁coopération	-3676
▁Importations	-3677
TR	-3678
TS	-3679
mar	-3680
▁Elle	-3681
▁réun	-3682
▁2000,	-3683
▁champ	-3684
▁spécif	-3685
▁tableau	-3686
ashington	-3687
▁intervenants	-3688
alys	-3689
cipe	-3690
▁Règ	-3691
▁glob	-3692
▁pièces	-3693
ventions	-3694
▁2006-05-0	-3695
▁troisième	-3696
▁administra	-3697
▁Cap	-3698
▁Div	-3699
▁Lab	-3700
offre	-3701
ineuses	-3702
▁Person	-3703
▁second	-3704
▁possède	-3705
▁univers	-3706
▁consultation	-3707
▁Tur	-3708
▁évé	-3709
rador	-3710
étude	-3711
égalité	-3712
▁recours	-3713
eal	-3714
oeu	-3715
coph	-3716
larg	-3717
▁clas	-3718
▁quar	-3719
▁domin	-3720
▁2001."	-3721
▁diminu	-3722
▁respect	-3723
▁industries	-3724
▁asi	-3725
oiles	-3726
▁Docu	-3727
▁dépl	-3728
▁Saint	-3729
▁tarif	-3730
▁Commun	-3731
▁Groupe	-3732
▁aucune	-3733
▁rendre	-3734
▁vinaig	-3735
▁contribution	-3736
HA	-3737
tié	-3738
itor	-3739
▁%)."	-3740
▁arri	-3741
▁atti	-3742
▁bœuf	-3743
▁cacao	-3744
▁inféri	-3745
▁compéti	-3746
▁efficace	-3747
▁surveill	-3748
limin	-3749
▁taxe	-3750
▁bétail	-3751
▁dépend	-3752
▁villes	-3753
périence	-3754
▁propres	-3755
▁spécial	-3756
▁systèmes	-3757
▁2007-03-2	-3758
▁boulangerie	-3759
be	-3760
lv	-3761
▁.	-3762
▁32	-3763
▁Sa	-3764
Elle	-3765
vous	-3766
icots	-3767
image	-3768
quent	-3769
▁remp	-3770
ercice	-3771
▁Journée	-3772
▁préparé	-3773
▁individu	-3774
▁indépend	-3775
▁République	-3776
▁promouvoir	-3777
▁alcoolisées	-3778
enregistrement	-3779
▁36	-3780
▁55	-3781
Parmi	-3782
▁rece	-3783
▁plani	-3784
assurance	-3785
▁alimentation	-3786
bo	-3787
▁Bel	-3788
▁minim	-3789
▁moitié	-3790
▁premiers	-3791
infoexport	-3792
▁conservation	-3793
▁organisations	-3794
76	-3795
GE	-3796
ris	-3797
tine	-3798
▁secs	-3799
▁étude	-3800
▁apport	-3801
▁frontière	-3802
▁référence	-3803
SO	-3804
la	-3805
dra	-3806
▁mus	-3807
table	-3808
▁1997	-3809
▁goût	-3810
attend	-3811
▁confir	-3812
▁judici	-3813
▁logement	-3814
▁veuillez	-3815
servatoire	-3816
▁intérieur	-3817
▁spécialisés	-3818
▁agriculteurs	-3819
▁génétiquement	-3820
sp	-3821
activité	-3822
▁industrie	-3823
▁Infrastructure	-3824
men	-3825
▁4.	-3826
▁Ac	-3827
qués	-3828
▁Bal	-3829
▁Cos	-3830
▁Cro	-3831
index	-3832
ètent	-3833
▁Flor	-3834
▁info	-3835
▁isra	-3836
liquer	-3837
▁influ	-3838
▁disponibles	-3839
onc	-3840
▁feu	-3841
▁vrac	-3842
▁autom	-3843
▁haute	-3844
▁estime	-3845
▁intéri	-3846
▁Semaine	-3847
▁suivant	-3848
vez	-3849
▁Jam	-3850
▁aci	-3851
▁ban	-3852
▁cela	-3853
▁nomm	-3854
bation	-3855
▁applic	-3856
▁demeure	-3857
▁israéli	-3858
ase	-3859
▁67	-3860
leur	-3861
oint	-3862
venu	-3863
▁613	-3864
▁FDA	-3865
▁amp	-3866
▁kil	-3867
agent	-3868
▁Arts	-3869
▁faci	-3870
élande	-3871
▁crème	-3872
aculture	-3873
▁articles	-3874
▁problème	-3875
importateur	-3876
ath	-3877
dul	-3878
▁Ré	-3879
inés	-3880
orge	-3881
▁(30	-3882
times	-3883
▁élab	-3884
térêts	-3885
ertains	-3886
▁restri	-3887
▁amélior	-3888
▁directri	-3889
▁accroître	-3890
▁électronique	-3891
cr	-3892
ited	-3893
uire	-3894
▁fort	-3895
ureaux	-3896
▁fabri	-3897
▁Chambre	-3898
▁Aliments	-3899
élaboration	-3900
▁techniques	-3901
95	-3902
bor	-3903
ipe	-3904
ive	-3905
net	-3906
olé	-3907
▁31	-3908
▁fré	-3909
▁bière	-3910
uration	-3911
▁Citoyenneté	-3912
▁différentes	-3913
▁Renseignements	-3914
▁Tous	-3915
▁bila	-3916
▁hôte	-3917
asions	-3918
▁accom	-3919
▁chang	-3920
▁reçoit	-3921
▁réguli	-3922
▁plainte	-3923
américain	-3924
▁2006-05-1	-3925
▁2006-09-1	-3926
▁participants	-3927
▁collectivités	-3928
Pro	-3929
terr	-3930
▁(19	-3931
ouest	-3932
harmon	-3933
▁saison	-3934
▁servir	-3935
▁mission	-3936
▁2007-03-0	-3937
▁Washington	-3938
▁procédures	-3939
NE	-3940
udg	-3941
Île	-3942
ouvrir	-3943
▁série	-3944
Zélande	-3945
▁répons	-3946
▁méthodes	-3947
▁enregistré	-3948
62	-3949
ze	-3950
▁>	-3951
▁pie	-3952
Ainsi	-3953
▁USDA	-3954
▁bord	-3955
▁requ	-3956
aliser	-3957
▁crime	-3958
▁sorte	-3959
▁modèle	-3960
▁magasin	-3961
infrastructure	-3962
▁Environnement	-3963
▁TX	-3964
▁urb	-3965
▁liés	-3966
▁créer	-3967
▁Common	-3968
▁propre	-3969
▁retrou	-3970
▁contexte	-3971
Agroalimentaire	-3972
▁méc	-3973
▁pau	-3974
gique	-3975
▁Conf	-3976
▁aura	-3977
ologie	-3978
orisme	-3979
équipe	-3980
▁déliv	-3981
▁contrat	-3982
▁Malaisie	-3983
▁astronom	-3984
▁critères	-3985
ps	-3986
état	-3987
▁mou	-3988
▁crev	-3989
▁enti	-3990
▁prin	-3991
▁raff	-3992
▁suit	-3993
Depuis	-3994
▁proté	-3995
▁suivi	-3996
▁nations	-3997
▁télesco	-3998
▁fraîches	-3999
▁protéger	-4000
▁2006-10-2	-4001
▁courtiers	-4002
▁potentiel	-4003
▁expéditions	-4004
49	-4005
65	-4006
Ar	-4007
Mal	-4008
orth	-4009
canada	-4010
▁genre	-4011
▁occup	-4012
▁comment	-4013
étiquette	-4014
▁ethniques	-4015
▁américaine	-4016
exploitation	-4017
ish	-4018
▁At	-4019
▁net	-4020
▁assu	-4021
▁sauf	-4022
stitut	-4023
▁concep	-4024
▁procure	-4025
▁renforc	-4026
Australie	-4027
▁conseils	-4028
▁2006-03-0	-4029
▁95	-4030
▁(50	-4031
▁pétro	-4032
----------------	-4033
Or	-4034
▁300	-4035
▁fix	-4036
▁tex	-4037
▁Dist	-4038
étaire	-4039
▁infra	-4040
osition	-4041
▁classe	-4042
▁dispos	-4043
▁faibles	-4044
exposition	-4045
▁difficile	-4046
▁décisions	-4047
Organisation	-4048
ling	-4049
roup	-4050
uels	-4051
▁val	-4052
▁Asie	-4053
Alberta	-4054
▁histor	-4055
▁pêches	-4056
entilles	-4057
▁2006-04-1	-4058
▁stratégique	-4059
▁Saskatchewan	-4060
uré	-4061
vin	-4062
Entre	-4063
estre	-4064
▁dess	-4065
Office	-4066
apitre	-4067
▁étudi	-4068
itiative	-4069
▁importe	-4070
▁travaux	-4071
▁appropri	-4072
▁poursuiv	-4073
▁suivante	-4074
▁Directive	-4075
▁rur	-4076
▁exer	-4077
unicip	-4078
▁Titre	-4079
▁avaient	-4080
▁plantes	-4081
▁participer	-4082
▁permettant	-4083
sy	-4084
02)	-4085
clé	-4086
lub	-4087
TEUR	-4088
eral	-4089
lent	-4090
ister	-4091
▁mode	-4092
onésie	-4093
▁carte	-4094
▁dossi	-4095
▁lutte	-4096
▁farine	-4097
▁Anciens	-4098
▁accords	-4099
▁valeurs	-4100
▁Gouverne	-4101
▁2006-12-1	-4102
▁régionaux	-4103
▁légèrement	-4104
ee	-4105
▁WW	-4106
▁aj	-4107
ussi	-4108
▁pes	-4109
ispan	-4110
▁aucun	-4111
▁addition	-4112
▁grossistes	-4113
▁statistiques	-4114
fic	-4115
ira	-4116
▁Nor	-4117
▁eaux	-4118
centage	-4119
▁maladies	-4120
▁paiement	-4121
innovation	-4122
▁employeurs	-4123
▁initiatives	-4124
79	-4125
ome	-4126
Lors	-4127
abin	-4128
rige	-4129
▁Pos	-4130
▁adap	-4131
▁chau	-4132
▁prim	-4133
▁trop	-4134
▁élevée	-4135
▁comesti	-4136
▁centrale	-4137
▁complète	-4138
▁propriété	-4139
▁importateur	-4140
▁institutions	-4141
▁scientifiques	-4142
mise	-4143
tics	-4144
▁local	-4145
▁raisonn	-4146
▁expansion	-4147
▁Autochtones	-4148
POR	-4149
lin	-4150
sse	-4151
ôts	-4152
▁AC	-4153
hana	-4154
ements	-4155
▁accue	-4156
▁progress	-4157
▁cependant	-4158
▁quotidien	-4159
OMC	-4160
▁fé	-4161
▁WWW	-4162
▁lic	-4163
eurre	-4164
▁Inde	-4165
ariats	-4166
triche	-4167
▁poste	-4168
▁sirop	-4169
▁étranger	-4170
▁approvision	-4171
MA	-4172
ho	-4173
▁X	-4174
▁AN	-4175
▁Ju	-4176
▁sim	-4177
lation	-4178
▁large	-4179
▁effets	-4180
▁suffis	-4181
▁Nations	-4182
▁technique	-4183
▁territoire	-4184
▁Afghanistan	-4185
Im	-4186
LER	-4187
ala	-4188
▁sit	-4189
ultés	-4190
▁Fran	-4191
▁entraî	-4192
▁justif	-4193
▁2007-02-0	-4194
▁meilleure	-4195
urg	-4196
▁MAR	-4197
▁Rob	-4198
▁int	-4199
▁ferme	-4200
▁quant	-4201
▁affich	-4202
▁utilisé	-4203
umineuses	-4204
▁avantage	-4205
harmonisation	-4206
▁commentaires	-4207
▁préparations	-4208
35	-4209
-10	-4210
due	-4211
▁CC	-4212
▁Nu	-4213
rabe	-4214
çons	-4215
▁Ass	-4216
ville	-4217
▁Stre	-4218
▁PRODU	-4219
▁Texas	-4220
▁établ	-4221
▁caract	-4222
▁raisons	-4223
04)	-4224
tos	-4225
▁AU	-4226
oici	-4227
▁Eur	-4228
▁Ret	-4229
▁Sci	-4230
ulent	-4231
▁Forces	-4232
▁Mexico	-4233
▁sûreté	-4234
▁2007-02-1	-4235
▁nutrition	-4236
▁conséquent	-4237
▁conformément	-4238
▁pharmaceutiques	-4239
ealth	-4240
▁Comb	-4241
▁liqu	-4242
antill	-4243
douard	-4244
▁Fonds	-4245
▁Peter	-4246
▁amples	-4247
▁croisi	-4248
▁Belgique	-4249
international	-4250
iés	-4251
▁Bl	-4252
▁Me	-4253
hist	-4254
èque	-4255
ancer	-4256
▁stim	-4257
▁locales	-4258
▁sociale	-4259
▁Amérique	-4260
▁2007-02-2	-4261
▁transformateurs	-4262
ANT	-4263
gar	-4264
orce	-4265
▁400	-4266
▁exist	-4267
▁rempli	-4268
▁semaine	-4269
▁2006-11-0	-4270
▁demandeur	-4271
▁européens	-4272
OS	-4273
Ils	-4274
▁Val	-4275
rière	-4276
▁Mise	-4277
accord	-4278
enquête	-4279
rations	-4280
▁huiles	-4281
▁perman	-4282
▁accorde	-4283
Argentine	-4284
tructures	-4285
▁victimes	-4286
▁Premières	-4287
▁visiteurs	-4288
▁sensibilisation	-4289
48	-4290
DC	-4291
Qu	-4292
hu	-4293
▁37	-4294
▁72	-4295
esse	-4296
▁blanc	-4297
istique	-4298
triques	-4299
▁crédit	-4300
▁franch	-4301
▁étoiles	-4302
▁activité	-4303
▁totalisé	-4304
▁tribunal	-4305
VE	-4306
gi	-4307
▁â	-4308
AAC	-4309
oré	-4310
sté	-4311
uba	-4312
▁LE	-4313
adop	-4314
anic	-4315
▁syn	-4316
▁minu	-4317
Prince	-4318
aliers	-4319
▁Corée	-4320
▁exécu	-4321
▁Prépar	-4322
▁charge	-4323
▁contrô	-4324
▁entente	-4325
▁faisant	-4326
ressource	-4327
▁considéré	-4328
▁occasions	-4329
fa	-4330
▁mol	-4331
▁Musée	-4332
▁canne	-4333
▁class	-4334
▁front	-4335
▁liées	-4336
▁nuclé	-4337
▁expédi	-4338
▁assujet	-4339
▁intermédi	-4340
▁superfici	-4341
▁étiquettes	-4342
▁financières	-4343
▁consultations	-4344
SE	-4345
Lab	-4346
dre	-4347
fie	-4348
met	-4349
vie	-4350
quie	-4351
èves	-4352
▁Org	-4353
▁mêmes	-4354
▁passe	-4355
▁Street	-4356
inations	-4357
▁Princip	-4358
▁annoncé	-4359
▁2006-12-0	-4360
amélioration	-4361
▁Combattants	-4362
▁Gouvernement	-4363
▁investissement	-4364
ago	-4365
ami	-4366
tar	-4367
▁Pé	-4368
imes	-4369
▁PDF	-4370
▁Wal	-4371
▁phot	-4372
abinet	-4373
▁Notes	-4374
▁mises	-4375
iscuits	-4376
▁petite	-4377
▁poudre	-4378
extérieur	-4379
organisation	-4380
▁concurrents	-4381
▁obligatoire	-4382
ués	-4383
▁59	-4384
▁ve	-4385
euse	-4386
oile	-4387
pert	-4388
urid	-4389
▁Sta	-4390
prise	-4391
▁rapp	-4392
▁extra	-4393
▁inclu	-4394
▁médic	-4395
▁Autres	-4396
▁termin	-4397
▁2007-06-2	-4398
▁spécialité	-4399
▁restrictions	-4400
................	-4401
▁supplémentaires	-4402
AF	-4403
old	-4404
▁Mi	-4405
Nouv	-4406
▁jeu	-4407
▁org	-4408
▁siè	-4409
Italie	-4410
annexe	-4411
▁2007-05-1	-4412
▁2007-05-2	-4413
▁capitaine	-4414
▁continuer	-4415
▁crevettes	-4416
hypothèques	-4417
▁possibilité	-4418
▁;	-4419
12)	-4420
meu	-4421
▁Pe	-4422
omon	-4423
▁asse	-4424
▁telle	-4425
▁bovins	-4426
▁locale	-4427
▁oeuvre	-4428
▁Floride	-4429
▁vinaigre	-4430
▁2006-02-0	-4431
▁pourcentage	-4432
Ob	-4433
aît	-4434
▁38	-4435
▁41	-4436
▁49	-4437
▁5.	-4438
▁PR	-4439
▁él	-4440
Même	-4441
cupe	-4442
onie	-4443
well	-4444
▁bru	-4445
chant	-4446
isent	-4447
▁film	-4448
ologne	-4449
▁World	-4450
▁chair	-4451
▁exige	-4452
aliforn	-4453
▁lequel	-4454
▁lignes	-4455
pectives	-4456
▁Turquie	-4457
▁comporte	-4458
▁indiennes	-4459
▁comestibles	-4460
PR	-4461
ama	-4462
▁PA	-4463
lect	-4464
▁lin	-4465
achet	-4466
aïwan	-4467
▁mets	-4468
chargé	-4469
onnées	-4470
posage	-4471
▁Agric	-4472
Édouard	-4473
▁cartes	-4474
▁semble	-4475
▁variété	-4476
▁courriel	-4477
▁permettra	-4478
▁quantités	-4479
▁nomination	-4480
ITS	-4481
aul	-4482
nex	-4483
tag	-4484
▁39	-4485
▁53	-4486
▁Ou	-4487
oirs	-4488
quée	-4489
▁COM	-4490
▁bois	-4491
tences	-4492
▁allég	-4493
▁seule	-4494
▁Market	-4495
▁analys	-4496
▁conclu	-4497
▁contenu	-4498
▁puisque	-4499
▁Products	-4500
▁emballés	-4501
▁terrorisme	-4502
gin	-4503
pdf	-4504
▁93	-4505
▁II	-4506
▁Mé	-4507
moins	-4508
▁pain	-4509
Export	-4510
▁Parcs	-4511
anneurs	-4512
aissance	-4513
▁familles	-4514
▁nationaux	-4515
île	-4516
Plus	-4517
suite	-4518
▁(972	-4519
ercial	-4520
▁Biote	-4521
▁Ghana	-4522
obtenir	-4523
▁Consul	-4524
▁beurre	-4525
omonitor	-4526
▁famille	-4527
▁niveaux	-4528
▁modifiés	-4529
▁compagnie	-4530
▁législation	-4531
GR	-4532
ié	-4533
ith	-4534
odi	-4535
▁62	-4536
▁EN	-4537
avid	-4538
▁Amé	-4539
▁App	-4540
▁Fax	-4541
▁Lég	-4542
itent	-4543
rance	-4544
▁Stra	-4545
▁budg	-4546
▁peup	-4547
▁épic	-4548
▁usines	-4549
▁offrant	-4550
▁chiffres	-4551
▁derniers	-4552
▁lentilles	-4553
▁organisme	-4554
9-7	-4555
▁ml	-4556
acte	-4557
earch	-4558
euros	-4559
▁Plan	-4560
▁neuf	-4561
inguis	-4562
▁Econom	-4563
▁entier	-4564
▁Personne	-4565
▁direction	-4566
▁Convention	-4567
▁Immigration	-4568
▁responsables	-4569
▁scientifique	-4570
ende	-4571
rabes	-4572
▁blan	-4573
▁systé	-4574
Conseil	-4575
▁latine	-4576
Institut	-4577
cussions	-4578
▁Travaux	-4579
▁entrepr	-4580
éducation	-4581
▁exportés	-4582
▁intérêts	-4583
exportateur	-4584
▁comparativement	-4585
ACIA	-4586
▁Cal	-4587
▁Cam	-4588
▁jug	-4589
▁énon	-4590
▁plein	-4591
▁statu	-4592
▁navire	-4593
▁renouv	-4594
▁sommes	-4595
▁douanes	-4596
▁vivants	-4597
▁faciliter	-4598
▁ministres	-4599
▁américaines	-4600
▁recommandations	-4601
tie	-4602
▁CO	-4603
angh	-4604
mira	-4605
otes	-4606
▁1-8	-4607
erait	-4608
ordre	-4609
▁glac	-4610
▁reçu	-4611
cteurs	-4612
▁exclus	-4613
▁réfrigérés	-4614
▁traditionnels	-4615
sh	-4616
dam	-4617
lob	-4618
sia	-4619
tit	-4620
▁94	-4621
gues	-4622
▁sais	-4623
▁surf	-4624
▁faits	-4625
▁préal	-4626
▁accrue	-4627
▁civile	-4628
▁magist	-4629
▁siècle	-4630
▁mécanis	-4631
accroître	-4632
habitants	-4633
▁Business	-4634
roissement	-4635
▁2006-02-2	-4636
▁2006-03-1	-4637
▁Nomination	-4638
did	-4639
inc	-4640
umb	-4641
▁"[	-4642
▁56	-4643
lure	-4644
▁OGM	-4645
▁Barb	-4646
▁hôtels	-4647
▁médias	-4648
alifornie	-4649
▁commencé	-4650
▁tourisme	-4651
▁partenariat	-4652
▁respectivement	-4653
Acc	-4654
aur	-4655
▁Sp	-4656
▁âg	-4657
▁Sur	-4658
▁fau	-4659
▁1996	-4660
▁pied	-4661
porter	-4662
▁Huile	-4663
▁relev	-4664
▁motifs	-4665
▁aliment	-4666
▁Conseils	-4667
▁courtier	-4668
▁importées	-4669
▁nationales	-4670
0)	-4671
oph	-4672
▁én	-4673
Isra	-4674
▁ici	-4675
Droit	-4676
ufact	-4677
▁face	-4678
▁noix	-4679
lusion	-4680
▁ajout	-4681
▁outils	-4682
oritaire	-4683
▁Seafood	-4684
▁complet	-4685
▁espèces	-4686
▁contient	-4687
▁criminel	-4688
▁diminution	-4689
▁prochaines	-4690
▁légumineuses	-4691
▁magistrature	-4692
gal	-4693
çus	-4694
▁44	-4695
▁63	-4696
▁Ge	-4697
▁Ro	-4698
anim	-4699
ival	-4700
tait	-4701
▁Reg	-4702
onner	-4703
▁Cuba	-4704
▁livra	-4705
▁dépass	-4706
▁réserve	-4707
▁utilisée	-4708
▁obstacles	-4709
▁respecter	-4710
▁dépanneurs	-4711
eut	-4712
ota	-4713
yer	-4714
▁Ne	-4715
Cela	-4716
▁250	-4717
▁rig	-4718
urant	-4719
▁test	-4720
iserie	-4721
▁Stock	-4722
▁sains	-4723
▁tenir	-4724
▁filets	-4725
▁mariti	-4726
▁stimul	-4727
▁Research	-4728
▁2006-11-1	-4729
▁Institute	-4730
▁fortement	-4731
▁procureur	-4732
▁définition	-4733
▁exportateur	-4734
▁planification	-4735
ks	-4736
4-9	-4737
cil	-4738
dom	-4739
til	-4740
utra	-4741
vège	-4742
▁Bri	-4743
▁Ins	-4744
▁Ter	-4745
inées	-4746
raine	-4747
essage	-4748
▁envis	-4749
roduits	-4750
▁Suisse	-4751
▁décenn	-4752
▁publié	-4753
▁aujourd	-4754
▁bureaux	-4755
▁Division	-4756
▁augmente	-4757
▁communes	-4758
approbation	-4759
▁Protection	-4760
▁proportion	-4761
▁uniquement	-4762
78	-4763
bio	-4764
cad	-4765
tel	-4766
▁Bu	-4767
▁Or	-4768
icro	-4769
tiss	-4770
▁pal	-4771
▁sold	-4772
▁soins	-4773
▁découver	-4774
▁établies	-4775
▁2007-03-1	-4776
▁destinées	-4777
▁Communauté	-4778
▁associations	-4779
▁construction	-4780
▁82	-4781
▁ir	-4782
Mart	-4783
aiss	-4784
▁bal	-4785
▁fro	-4786
raser	-4787
lément	-4788
▁Pérou	-4789
▁plans	-4790
essence	-4791
▁cultiv	-4792
▁Norvège	-4793
▁vendent	-4794
▁achètent	-4795
▁ensemble	-4796
▁difficultés	-4797
55	-4798
ef	-4799
gg	-4800
isé	-4801
▁Si	-4802
ends	-4803
ives	-4804
▁Rep	-4805
▁bij	-4806
velop	-4807
▁David	-4808
▁Selon	-4809
▁désig	-4810
▁foire	-4811
▁plats	-4812
▁ports	-4813
▁réput	-4814
istance	-4815
▁orient	-4816
▁Directeur	-4817
▁publicité	-4818
ographiques	-4819
▁stratégies	-4820
nom	-4821
ony	-4822
▁Év	-4823
nons	-4824
▁Lim	-4825
▁tar	-4826
arité	-4827
▁clés	-4828
ptions	-4829
▁coûte	-4830
liquent	-4831
▁Shangh	-4832
▁démont	-4833
▁longue	-4834
▁multip	-4835
airement	-4836
▁diversi	-4837
▁municip	-4838
▁passage	-4839
▁sauvage	-4840
▁Agricult	-4841
▁lesquels	-4842
▁2008-03-1	-4843
▁comprendre	-4844
▁attribuable	-4845
AB	-4846
▁73	-4847
▁9.	-4848
bler	-4849
oyer	-4850
▁Day	-4851
▁Gen	-4852
▁ait	-4853
▁gag	-4854
intég	-4855
obile	-4856
pects	-4857
▁Sans	-4858
amment	-4859
licite	-4860
▁guide	-4861
▁morue	-4862
▁payer	-4863
▁résid	-4864
acement	-4865
landais	-4866
▁comité	-4867
▁passer	-4868
▁pleine	-4869
▁stocks	-4870
▁conjoin	-4871
▁minutes	-4872
▁exporter	-4873
▁occident	-4874
▁économie	-4875
▁autorités	-4876
▁protéines	-4877
▁télescope	-4878
▁juridiques	-4879
▁permettent	-4880
69	-4881
aska	-4882
ètre	-4883
▁att	-4884
▁tel	-4885
nexes	-4886
▁Prés	-4887
▁Show	-4888
▁péné	-4889
identi	-4890
▁assez	-4891
▁oeufs	-4892
▁réuss	-4893
▁douani	-4894
▁manque	-4895
▁équipe	-4896
▁Alberta	-4897
▁indiqué	-4898
▁produire	-4899
▁Instituts	-4900
ara	-4901
del	-4902
▁34	-4903
ital	-4904
▁Can	-4905
▁cél	-4906
oléag	-4907
ouvre	-4908
▁déci	-4909
▁loin	-4910
▁mach	-4911
▁tent	-4912
▁vitam	-4913
▁fondée	-4914
▁systém	-4915
▁devenir	-4916
▁méthode	-4917
▁pétrole	-4918
▁Industri	-4919
▁Rapports	-4920
▁consiste	-4921
▁soutenir	-4922
auguration	-4923
▁2007-05-0	-4924
▁Élections	-4925
aquaculture	-4926
▁confiserie	-4927
▁développer	-4928
▁démographique	-4929
AT	-4930
IL	-4931
▁,	-4932
ata	-4933
▁(1	-4934
▁AS	-4935
çant	-4936
▁Med	-4937
▁gri	-4938
tival	-4939
▁Amer	-4940
▁fourni	-4941
▁antiterr	-4942
▁pêcheurs	-4943
▁autrement	-4944
▁communauté	-4945
▁événements	-4946
▁Exportation	-4947
▁britannique	-4948
▁compétences	-4949
▁intermédiaires	-4950
uit	-4951
▁CR	-4952
alog	-4953
inte	-4954
ynam	-4955
▁Win	-4956
taire	-4957
▁King	-4958
dustry	-4959
mettre	-4960
▁Franc	-4961
▁vendu	-4962
ricains	-4963
▁bovine	-4964
▁réussi	-4965
partment	-4966
▁command	-4967
▁Canadian	-4968
▁haricots	-4969
▁laitière	-4970
▁préparer	-4971
▁végétaux	-4972
▁directive	-4973
▁nucléaire	-4974
▁ministères	-4975
ME	-4976
▁Bro	-4977
▁Vir	-4978
rient	-4979
▁restre	-4980
Labrador	-4981
exercice	-4982
▁Cabinet	-4983
▁Message	-4984
▁identif	-4985
▁veulent	-4986
▁2008-02-2	-4987
▁mexicains	-4988
▁déclaration	-4989
▁information	-4990
▁subventions	-4991
-03	-4992
-17	-4993
▁10,	-4994
▁Féd	-4995
▁Per	-4996
ssage	-4997
▁Penn	-4998
▁État	-4999
▁Suite	-5000
▁discu	-5001
▁maxim	-5002
stronom	-5003
▁Fraser	-5004
▁Projet	-5005
▁pénétr	-5006
▁Afrique	-5007
▁partout	-5008
▁bulletin	-5009
▁économies	-5010
▁préoccupations	-5011
PDF	-5012
/200	-5013
bres	-5014
quoi	-5015
rois	-5016
ties	-5017
vant	-5018
▁Tel	-5019
▁brut	-5020
Accord	-5021
Malgré	-5022
▁final	-5023
▁labor	-5024
▁régle	-5025
cidence	-5026
▁chacun	-5027
▁privil	-5028
▁Tableau	-5029
▁circons	-5030
ologiques	-5031
▁clientèle	-5032
▁publiques	-5033
▁Californie	-5034
▁provinciaux	-5035
▁surveillance	-5036
▁vérification	-5037
iz	-5038
-04	-5039
▁85	-5040
crit	-5041
lier	-5042
▁fili	-5043
▁tard	-5044
estival	-5045
investi	-5046
▁Compan	-5047
▁canola	-5048
olutions	-5049
▁animale	-5050
▁contacts	-5051
▁caractère	-5052
▁favoriser	-5053
▁structure	-5054
▁transports	-5055
▁habituellement	-5056
igh	-5057
lov	-5058
uck	-5059
zer	-5060
▁jur	-5061
▁chem	-5062
▁clin	-5063
▁réel	-5064
▁décès	-5065
▁démar	-5066
▁motif	-5067
▁2006."	-5068
▁matéri	-5069
▁enquête	-5070
▁exporté	-5071
▁fromage	-5072
▁montant	-5073
Pacifique	-5074
▁chapitre	-5075
▁demander	-5076
entreposage	-5077
▁Department	-5078
▁particuliers	-5079
▁antiterroriste	-5080
73	-5081
ms	-5082
▁)	-5083
idé	-5084
ust	-5085
empê	-5086
oyen	-5087
▁Est	-5088
abord	-5089
aleur	-5090
seurs	-5091
▁Vous	-5092
▁file	-5093
▁tran	-5094
tilles	-5095
▁tabac	-5096
▁ensuite	-5097
▁humaine	-5098
▁propose	-5099
améliorer	-5100
▁Présence	-5101
▁judiciaire	-5102
-06	-5103
usé	-5104
▁FO	-5105
itts	-5106
cides	-5107
ineux	-5108
perts	-5109
▁Lond	-5110
▁Poli	-5111
▁hors	-5112
Israël	-5113
formes	-5114
kraine	-5115
▁Nombre	-5116
ribunaux	-5117
▁Indiens	-5118
▁contact	-5119
▁croissante	-5120
ox	-5121
(1)	-5122
can	-5123
mpé	-5124
mun	-5125
▁be	-5126
berg	-5127
▁Vic	-5128
▁eau	-5129
quant	-5130
▁côté	-5131
origin	-5132
▁James	-5133
▁durée	-5134
▁grain	-5135
▁norme	-5136
▁spati	-5137
▁subst	-5138
▁harmon	-5139
▁montre	-5140
uridisme	-5141
▁réponse	-5142
intérieur	-5143
velopment	-5144
▁connaiss	-5145
▁généraux	-5146
▁meilleur	-5147
▁principes	-5148
▁intérieure	-5149
▁directrices	-5150
▁fonctionnels	-5151
.)	-5152
PC	-5153
ame	-5154
cra	-5155
eld	-5156
fié	-5157
ref	-5158
▁600	-5159
ament	-5160
outes	-5161
▁miel	-5162
atrice	-5163
tition	-5164
▁confi	-5165
▁expri	-5166
▁figure	-5167
applique	-5168
ologique	-5169
▁croyons	-5170
▁meilleurs	-5171
▁engagement	-5172
▁publications	-5173
LES	-5174
éan	-5175
▁48	-5176
dite	-5177
otal	-5178
▁11,	-5179
▁fut	-5180
ouvez	-5181
tatif	-5182
▁Form	-5183
gments	-5184
▁crabe	-5185
▁cultur	-5186
▁pouvez	-5187
▁pêcher	-5188
histoire	-5189
▁destiné	-5190
▁Document	-5191
▁Shanghai	-5192
▁Stockwell	-5193
▁habitants	-5194
▁maintenir	-5195
▁sélection	-5196
immigration	-5197
ritanniques	-5198
▁CN	-5199
réci	-5200
sylv	-5201
▁Mad	-5202
autom	-5203
intes	-5204
renti	-5205
▁porcs	-5206
usement	-5207
▁consta	-5208
▁limite	-5209
▁litres	-5210
▁pauvre	-5211
▁soumis	-5212
▁renseig	-5213
▁régimes	-5214
▁travers	-5215
▁biscuits	-5216
troduction	-5217
▁habitudes	-5218
▁renforcer	-5219
▁utilisées	-5220
▁partenaire	-5221
▁prévisions	-5222
▁Agricultural	-5223
41	-5224
ano	-5225
▁km	-5226
ater	-5227
▁(52	-5228
▁dév	-5229
▁West	-5230
▁mort	-5231
▁tête	-5232
dience	-5233
oeuvre	-5234
▁MARCH	-5235
▁North	-5236
▁dynam	-5237
▁noter	-5238
▁Portug	-5239
▁excell	-5240
▁Company	-5241
évolution	-5242
initiative	-5243
▁2006-04-0	-5244
▁2007-08-2	-5245
▁2007-12-1	-5246
▁exposants	-5247
▁métriques	-5248
▁téléphone	-5249
▁responsabil	-5250
agé	-5251
ceu	-5252
▁Is	-5253
PORT	-5254
inst	-5255
osph	-5256
ouss	-5257
▁Que	-5258
▁étro	-5259
ommage	-5260
▁Table	-5261
▁Unies	-5262
▁objet	-5263
▁lettre	-5264
entement	-5265
ulgation	-5266
▁congelé	-5267
▁devient	-5268
▁2007-01-2	-5269
▁2007-11-0	-5270
01	-5271
UX	-5272
cy	-5273
we	-5274
-05	-5275
▁52	-5276
oies	-5277
▁flé	-5278
aïbes	-5279
exécu	-5280
▁dédou	-5281
▁favor	-5282
▁venir	-5283
▁Columb	-5284
▁arabes	-5285
▁offert	-5286
adoption	-5287
anitaire	-5288
▁capital	-5289
uellement	-5290
▁fonctions	-5291
▁tribunaux	-5292
▁travailleurs	-5293
68	-5294
Ad	-5295
Re	-5296
ón	-5297
Ali	-5298
ott	-5299
▁Ab	-5300
▁Sc	-5301
▁sè	-5302
nexe	-5303
unis	-5304
veurs	-5305
▁acte	-5306
▁arom	-5307
▁rent	-5308
▁subs	-5309
inform	-5310
mirats	-5311
oreign	-5312
étique	-5313
▁Moyen	-5314
▁Voici	-5315
identif	-5316
▁Taïwan	-5317
Solution	-5318
▁connaît	-5319
employeur	-5320
▁segments	-5321
▁2007-06-0	-5322
▁conformité	-5323
hl	-5324
mn	-5325
cun	-5326
hés	-5327
arde	-5328
▁Sau	-5329
▁Sim	-5330
effic	-5331
iritu	-5332
▁"100	-5333
▁larg	-5334
▁lien	-5335
▁vois	-5336
Québec	-5337
offrir	-5338
▁Costa	-5339
▁arriv	-5340
▁const	-5341
▁remar	-5342
▁auxque	-5343
▁réduit	-5344
▁linguis	-5345
▁principe	-5346
▁réduction	-5347
▁régionale	-5348
▁formulaire	-5349
Observatoire	-5350
▁obligations	-5351
▁+	-5352
ENA	-5353
▁Dr	-5354
▁Wh	-5355
▁bro	-5356
▁jam	-5357
itées	-5358
▁post	-5359
orient	-5360
▁condu	-5361
▁journ	-5362
▁quand	-5363
▁tempé	-5364
▁traiter	-5365
anitaires	-5366
iversaire	-5367
▁ententes	-5368
▁supérieur	-5369
rastructures	-5370
OT	-5371
ols	-5372
▁do	-5373
Comm	-5374
onal	-5375
▁Fre	-5376
▁LES	-5377
▁ble	-5378
▁web	-5379
aître	-5380
influ	-5381
▁Rica	-5382
▁pens	-5383
espace	-5384
ueilli	-5385
▁micro	-5386
▁parle	-5387
▁tient	-5388
dessous	-5389
▁retour	-5390
▁vivant	-5391
▁accéder	-5392
▁bilatér	-5393
▁Caraïbes	-5394
▁francoph	-5395
▁variétés	-5396
▁2007-01-1	-5397
▁2008-04-2	-5398
▁financier	-5399
▁marketing	-5400
▁Development	-5401
ios	-5402
jus	-5403
teg	-5404
tish	-5405
▁Dis	-5406
▁Fed	-5407
était	-5408
▁Recher	-5409
▁jamais	-5410
▁solide	-5411
▁utiles	-5412
▁durable	-5413
▁maladie	-5414
▁naturel	-5415
▁philipp	-5416
▁figurent	-5417
▁pouvoirs	-5418
▁violence	-5419
rentissage	-5420
▁2007-10-1	-5421
▁asiatique	-5422
▁fédérales	-5423
▁épiceries	-5424
ctuellement	-5425
PO	-5426
ya	-5427
Ind	-5428
own	-5429
▁6.	-5430
▁7.	-5431
▁vu	-5432
quées	-5433
▁char	-5434
▁pois	-5435
▁abord	-5436
▁secré	-5437
▁élarg	-5438
utraceu	-5439
èlement	-5440
▁2000."	-5441
▁Charte	-5442
▁Public	-5443
▁Virgin	-5444
▁calcul	-5445
▁article	-5446
▁concept	-5447
▁Columbia	-5448
▁pavillon	-5449
▁présenté	-5450
▁2008-05-2	-5451
▁propositions	-5452
32	-5453
fer	-5454
peg	-5455
âte	-5456
▁PAR	-5457
▁Pra	-5458
▁sept	-5459
▁spec	-5460
chives	-5461
tières	-5462
▁chefs	-5463
▁pomme	-5464
▁modern	-5465
▁compren	-5466
▁prévues	-5467
▁campagne	-5468
▁européen	-5469
expérience	-5470
▁Règlement	-5471
▁emballages	-5472
▁lesquelles	-5473
▁réputation	-5474
▁satisfaire	-5475
▁superficie	-5476
▁partenariats	-5477
▁perspectives	-5478
81	-5479
no	-5480
ute	-5481
▁150	-5482
crire	-5483
▁créé	-5484
▁unis	-5485
▁vont	-5486
▁état	-5487
▁confl	-5488
▁sauce	-5489
▁Report	-5490
▁climat	-5491
▁découl	-5492
Autriche	-5493
▁acheter	-5494
▁affaire	-5495
▁aspects	-5496
▁Émirats	-5497
organisme	-5498
▁accompag	-5499
▁révision	-5500
▁2007-04-2	-5501
▁2008-05-0	-5502
▁communautaire	-5503
agroalimentaire	-5504
▁représentaient	-5505
▁essentiellement	-5506
LA	-5507
SC	-5508
ety	-5509
tro	-5510
ulé	-5511
IQUE	-5512
indi	-5513
▁MEX	-5514
▁Mil	-5515
blème	-5516
nipeg	-5517
écois	-5518
▁séch	-5519
dessus	-5520
▁oléag	-5521
▁pesos	-5522
▁tirer	-5523
atrième	-5524
tations	-5525
▁Health	-5526
▁explor	-5527
▁phytos	-5528
▁sauces	-5529
▁Pennsylv	-5530
▁trouvent	-5531
▁chercheurs	-5532
▁provincial	-5533
▁travailler	-5534
commissariat	-5535
cor	-5536
même	-5537
▁800	-5538
▁Gre	-5539
appel	-5540
ierre	-5541
▁rési	-5542
▁veut	-5543
riture	-5544
éroport	-5545
▁Israel	-5546
▁Minist	-5547
▁pouvant	-5548
▁Certains	-5549
▁chimiques	-5550
▁Commercial	-5551
▁concurrentiel	-5552
3,	-5553
-25	-5554
-3)	-5555
▁8.	-5556
rite	-5557
vres	-5558
énéz	-5559
▁Ave	-5560
▁Pan	-5561
▁bac	-5562
burgh	-5563
▁trim	-5564
accent	-5565
omique	-5566
▁1999,	-5567
▁2003.	-5568
▁affir	-5569
▁égard	-5570
taurant	-5571
▁Postes	-5572
▁hispan	-5573
▁drogues	-5574
▁spiritu	-5575
▁Industry	-5576
▁seraient	-5577
/19	-5578
▁Hu	-5579
rich	-5580
▁(2)	-5581
abric	-5582
▁bate	-5583
▁extr	-5584
Orient	-5585
itaine	-5586
énézué	-5587
▁créne	-5588
▁nette	-5589
ATIONAL	-5590
▁actuel	-5591
▁dirige	-5592
▁foires	-5593
▁souten	-5594
▁approuv	-5595
▁dédouan	-5596
▁allemand	-5597
▁physique	-5598
▁livraison	-5599
▁longtemps	-5600
▁solutions	-5601
▁changement	-5602
▁Commissariat	-5603
▁négociations	-5604
07	-5605
RC	-5606
enf	-5607
▁46	-5608
▁EX	-5609
▁af	-5610
Avec	-5611
inéa	-5612
long	-5613
roph	-5614
▁CRHA	-5615
ension	-5616
▁(416)	-5617
▁Total	-5618
▁corps	-5619
▁délai	-5620
▁faite	-5621
▁condam	-5622
▁porter	-5623
▁directe	-5624
▁dossier	-5625
▁récolte	-5626
▁surface	-5627
inflation	-5628
ittsburgh	-5629
▁relatifs	-5630
▁signifie	-5631
▁2006-06-2	-5632
▁confiance	-5633
▁intéressés	-5634
▁frontaliers	-5635
▁territoires	-5636
▁Biotechnology	-5637
,"	-5638
hib	-5639
por	-5640
▁JO	-5641
ader	-5642
enci	-5643
TEURS	-5644
ingré	-5645
ustac	-5646
▁Cela	-5647
acific	-5648
▁fémin	-5649
▁tenue	-5650
▁malgré	-5651
▁analyse	-5652
▁croître	-5653
▁remplacé	-5654
engagement	-5655
▁Australie	-5656
▁fondament	-5657
▁préalable	-5658
46	-5659
OD	-5660
lam	-5661
ram	-5662
fiés	-5663
outh	-5664
▁réd	-5665
cepti	-5666
crits	-5667
érant	-5668
▁POUR	-5669
▁brev	-5670
▁2004.	-5671
▁citoy	-5672
▁immeu	-5673
▁marins	-5674
▁accessi	-5675
▁facteur	-5676
▁pourront	-5677
allocution	-5678
excellence	-5679
▁2007-06-1	-5680
▁ordonnance	-5681
▁publication	-5682
4.	-5683
▁i	-5684
-02	-5685
Com	-5686
Sur	-5687
gyp	-5688
inn	-5689
▁76	-5690
▁RÉ	-5691
fiée	-5692
idus	-5693
lant	-5694
pôts	-5695
▁dès	-5696
▁vir	-5697
▁Étu	-5698
isher	-5699
▁mess	-5700
▁morce	-5701
▁organ	-5702
▁adopté	-5703
▁chargé	-5704
▁glacée	-5705
▁portée	-5706
▁élimin	-5707
▁remplir	-5708
partement	-5709
▁connexes	-5710
▁suscepti	-5711
▁2008-03-2	-5712
▁connaissances	-5713
▁Administration	-5714
ws	-5715
delà	-5716
duci	-5717
sive	-5718
▁tom	-5719
oleil	-5720
▁MacK	-5721
▁fine	-5722
ATIONS	-5723
▁Accès	-5724
▁prise	-5725
▁réper	-5726
▁souff	-5727
▁ajouté	-5728
▁aurait	-5729
▁aérien	-5730
▁faveur	-5731
▁guerre	-5732
▁manger	-5733
énézuéli	-5734
entremise	-5735
▁milliers	-5736
▁modifier	-5737
▁recettes	-5738
▁vérifier	-5739
▁mexicaine	-5740
▁militaire	-5741
▁précédente	-5742
▁francophones	-5743
98	-5744
011	-5745
ral	-5746
▁MA	-5747
sses	-5748
▁sav	-5749
isant	-5750
ondes	-5751
▁Tony	-5752
▁néer	-5753
▁pros	-5754
alinéa	-5755
▁Miami	-5756
▁accru	-5757
▁appui	-5758
▁artis	-5759
▁parts	-5760
actions	-5761
ustacés	-5762
▁désire	-5763
▁occupe	-5764
▁origin	-5765
Conseils	-5766
actitude	-5767
▁Foreign	-5768
▁réseaux	-5769
▁sociaux	-5770
▁PRODUITS	-5771
▁Winnipeg	-5772
▁contribué	-5773
▁croissant	-5774
▁priorités	-5775
▁échantill	-5776
▁historique	-5777
▁composition	-5778
▁anniversaire	-5779
▁stratégiques	-5780
DP	-5781
SA	-5782
hic	-5783
Cont	-5784
abat	-5785
demn	-5786
mont	-5787
érit	-5788
enade	-5789
erman	-5790
riques	-5791
▁actes	-5792
▁faill	-5793
▁glace	-5794
▁manif	-5795
▁musul	-5796
▁remet	-5797
▁conver	-5798
▁requis	-5799
▁tarifs	-5800
▁Organic	-5801
▁Stratég	-5802
▁appliqu	-5803
▁licence	-5804
▁progrès	-5805
efficacité	-5806
▁consommer	-5807
▁réfrigéré	-5808
▁compagnies	-5809
▁continuent	-5810
▁différends	-5811
▁proviennent	-5812
Environnement	-5813
▁biotechnolog	-5814
▁sensibiliser	-5815
▁particulières	-5816
▁professionnels	-5817
9,	-5818
dé	-5819
rag	-5820
Télé	-5821
cial	-5822
gent	-5823
mans	-5824
usse	-5825
▁CAR	-5826
▁INC	-5827
▁flu	-5828
▁pan	-5829
▁pap	-5830
▁ral	-5831
ALENA	-5832
▁québ	-5833
▁reli	-5834
▁sugg	-5835
▁visi	-5836
MENTAI	-5837
ignons	-5838
jouter	-5839
▁défis	-5840
▁simil	-5841
▁emploi	-5842
▁signal	-5843
quisition	-5844
▁certaine	-5845
▁organisé	-5846
▁efficaces	-5847
▁quatrième	-5848
▁québécois	-5849
▁financiers	-5850
▁popularité	-5851
▁allégations	-5852
▁Introduction	-5853
ôm	-5854
14)	-5855
ERS	-5856
▁vé	-5857
SOCI	-5858
ocra	-5859
oule	-5860
îles	-5861
▁1,5	-5862
▁fle	-5863
▁nou	-5864
▁Asia	-5865
▁cong	-5866
▁temp	-5867
équité	-5868
▁explo	-5869
▁offer	-5870
▁zones	-5871
▁budget	-5872
▁ouvert	-5873
▁Francis	-5874
▁couleur	-5875
▁limitée	-5876
▁surgelé	-5877
▁Bulletin	-5878
▁contribue	-5879
▁diversité	-5880
▁permanent	-5881
utraceutiques	-5882
96	-5883
yth	-5884
▁El	-5885
1-30	-5886
arie	-5887
guay	-5888
ocat	-5889
tell	-5890
▁Lou	-5891
▁pil	-5892
▁sel	-5893
impôt	-5894
ories	-5895
prême	-5896
▁sens	-5897
jectif	-5898
▁innov	-5899
▁octro	-5900
▁pages	-5901
▁stand	-5902
▁énerg	-5903
▁United	-5904
▁candid	-5905
▁compét	-5906
▁danger	-5907
▁entrer	-5908
▁délégués	-5909
▁Pittsburgh	-5910
▁tarifaires	-5911
▁minoritaire	-5912
▁statistique	-5913
2,	-5914
agu	-5915
auf	-5916
rob	-5917
èles	-5918
▁Évé	-5919
Après	-5920
oblig	-5921
▁1990	-5922
▁zone	-5923
▁affec	-5924
▁cible	-5925
▁génie	-5926
▁lancé	-5927
▁plaig	-5928
▁souci	-5929
aliment	-5930
lusques	-5931
ressent	-5932
▁Italie	-5933
▁examen	-5934
▁Pologne	-5935
▁obtenus	-5936
▁rurales	-5937
▁élevées	-5938
▁établie	-5939
▁Distribu	-5940
▁comptent	-5941
▁morceaux	-5942
▁profiter	-5943
▁spéciaux	-5944
▁élections	-5945
▁Gouverneur	-5946
▁Principaux	-5947
▁nourriture	-5948
▁connaissent	-5949
▁informations	-5950
CC	-5951
DI	-5952
Gr	-5953
LO	-5954
▁—	-5955
Pré	-5956
▁Em	-5957
▁VI	-5958
ètes	-5959
▁nov	-5960
cosur	-5961
exist	-5962
▁esti	-5963
▁Parti	-5964
▁liber	-5965
▁véhic	-5966
▁British	-5967
▁ajoutés	-5968
▁homolog	-5969
▁indique	-5970
Industrie	-5971
▁Portugal	-5972
▁associés	-5973
▁décennie	-5974
▁féminine	-5975
▁vitamines	-5976
▁spiritueux	-5977
▁modification	-5978
▁compétitivité	-5979
do	-5980
nu	-5981
ini	-5982
ste	-5983
▁Ni	-5984
ican	-5985
urée	-5986
▁bra	-5987
▁por	-5988
plant	-5989
stème	-5990
▁Agri	-5991
▁Cook	-5992
▁éval	-5993
gouver	-5994
▁court	-5995
▁lance	-5996
▁vient	-5997
eurisme	-5998
▁Réseau	-5999
▁puisse	-6000
▁détails	-6001
exécution	-6002
▁aérienne	-6003
▁maritime	-6004
▁entrepren	-6005
▁conférence	-6006
▁populaires	-6007
▁applicables	-6008
▁réalisation	-6009
▁universités	-6010
▁indépendants	-6011
hip	-6012
▁dû	-6013
fice	-6014
▁Act	-6015
▁Mig	-6016
▁Ver	-6017
arque	-6018
▁Vari	-6019
▁prot	-6020
▁abats	-6021
▁vende	-6022
diction	-6023
iseries	-6024
▁hommes	-6025
▁nouvel	-6026
▁Clement	-6027
▁acteurs	-6028
▁publiés	-6029
▁Consulat	-6030
▁Pavillon	-6031
▁déclarée	-6032
▁retrouve	-6033
▁semences	-6034
▁2006-06-1	-6035
▁2007-01-0	-6036
▁contraire	-6037
▁demeurent	-6038
▁clairement	-6039
▁terroriste	-6040
▁commissaires	-6041
▁communications	-6042
-09	-6043
▁cy	-6044
user	-6045
euner	-6046
▁bons	-6047
▁parc	-6048
▁visé	-6049
▁voul	-6050
inaire	-6051
ruguay	-6052
▁compt	-6053
▁modes	-6054
▁situé	-6055
akistan	-6056
▁aperçu	-6057
▁auront	-6058
▁riches	-6059
▁statut	-6060
▁Accueil	-6061
▁Environ	-6062
▁déclaré	-6063
▁2006-02-1	-6064
▁nécessité	-6065
▁progressé	-6066
▁recueilli	-6067
▁secrétaire	-6068
Actuellement	-6069
▁entièrement	-6070
71	-6071
sc	-6072
ÉR	-6073
-07	-6074
Car	-6075
ION	-6076
▁Ty	-6077
haus	-6078
unei	-6079
adesh	-6080
▁Aide	-6081
▁Rich	-6082
▁cell	-6083
change	-6084
itions	-6085
observ	-6086
▁décor	-6087
▁dépôt	-6088
▁siège	-6089
▁MacKay	-6090
▁bonnes	-6091
▁causes	-6092
▁Country	-6093
▁assorti	-6094
▁interne	-6095
▁réforme	-6096
▁suprême	-6097
▁matériaux	-6098
▁consultatif	-6099
▁législatives	-6100
TC	-6101
Eur	-6102
enz	-6103
rog	-6104
ung	-6105
...]	-6106
cées	-6107
▁fum	-6108
▁Road	-6109
▁prêt	-6110
▁soup	-6111
iforme	-6112
▁crise	-6113
▁dirig	-6114
▁garde	-6115
▁inten	-6116
▁libér	-6117
▁nommé	-6118
▁prévu	-6119
▁sépar	-6120
service	-6121
▁décrit	-6122
▁obtenu	-6123
▁publie	-6124
utiliser	-6125
▁Pacific	-6126
▁Section	-6127
▁fraîche	-6128
▁élément	-6129
▁établit	-6130
stronomes	-6131
▁contrats	-6132
▁occasion	-6133
▁congelées	-6134
▁territori	-6135
ingrédients	-6136
▁systémique	-6137
▁bijuridisme	-6138
accroissement	-6139
-11	-6140
bon	-6141
▁66	-6142
▁91	-6143
▁je	-6144
▁ul	-6145
cole	-6146
film	-6147
pays	-6148
tori	-6149
▁2,5	-6150
▁Cet	-6151
▁cub	-6152
▁dég	-6153
▁imm	-6154
▁pér	-6155
Nouve	-6156
iment	-6157
▁Mois	-6158
▁kios	-6159
▁mang	-6160
▁mots	-6161
▁2006"	-6162
▁avenue	-6163
▁complé	-6164
▁fusion	-6165
▁hypoth	-6166
▁volont	-6167
icateurs	-6168
▁fournis	-6169
▁parfois	-6170
▁reconnu	-6171
Indonésie	-6172
▁importer	-6173
appliquent	-6174
astronomie	-6175
▁exception	-6176
▁opération	-6177
▁communautaires	-6178
▁nutraceutiques	-6179
ga	-6180
je	-6181
-20	-6182
▁SA	-6183
▁SE	-6184
▁Sé	-6185
comp	-6186
▁boî	-6187
aider	-6188
effet	-6189
tical	-6190
▁(011	-6191
▁Farm	-6192
▁rivi	-6193
▁évid	-6194
uelles	-6195
▁Super	-6196
▁utile	-6197
▁MARCHÉ	-6198
▁approf	-6199
▁commod	-6200
▁fleuve	-6201
pulation	-6202
▁compter	-6203
criptions	-6204
exception	-6205
▁2008-01-2	-6206
▁2008-02-1	-6207
▁Condition	-6208
▁Stratégie	-6209
▁présentés	-6210
▁Conférence	-6211
▁convention	-6212
▁facilement	-6213
▁instruments	-6214
▁probablement	-6215
cée	-6216
sor	-6217
▁Am	-6218
ings	-6219
▁Del	-6220
▁Nig	-6221
▁cit	-6222
▁not	-6223
telle	-6224
▁Cong	-6225
▁paix	-6226
▁pron	-6227
▁succ	-6228
itures	-6229
▁2005.	-6230
▁2007,	-6231
▁acide	-6232
▁heure	-6233
▁pénur	-6234
▁rejet	-6235
diences	-6236
entente	-6237
▁classi	-6238
▁envers	-6239
▁façons	-6240
▁finale	-6241
▁postes	-6242
▁syndic	-6243
elations	-6244
▁majeure	-6245
▁approche	-6246
▁relation	-6247
▁réaliser	-6248
▁souligne	-6249
lementation	-6250
▁mollusques	-6251
▁opérations	-6252
▁conséquence	-6253
▁travaillent	-6254
▁connaissance	-6255
Se	-6256
ix	-6257
mx	-6258
pa	-6259
ern	-6260
▁Ed	-6261
hôte	-6262
▁SUR	-6263
▁end	-6264
toral	-6265
ômage	-6266
▁Slov	-6267
▁appr	-6268
▁sond	-6269
▁susc	-6270
▁îles	-6271
ditifs	-6272
▁route	-6273
▁cuites	-6274
onnances	-6275
▁(972-3)	-6276
▁Consult	-6277
▁Council	-6278
▁blanche	-6279
▁passées	-6280
▁Ministry	-6281
▁garantie	-6282
▁pauvreté	-6283
▁2007-10-2	-6284
▁2008-02-0	-6285
▁Argentine	-6286
▁vénézuéli	-6287
▁restaurant	-6288
▁Pennsylvanie	-6289
?"	-6290
Mar	-6291
Res	-6292
lut	-6293
ory	-6294
Conn	-6295
cien	-6296
▁(70	-6297
▁Cer	-6298
▁Dou	-6299
▁Mes	-6300
MENTS	-6301
vidus	-6302
▁Park	-6303
▁renv	-6304
alisés	-6305
atural	-6306
ettres	-6307
▁douce	-6308
▁frapp	-6309
▁lieux	-6310
ctuelle	-6311
▁Brunei	-6312
▁Grande	-6313
▁allant	-6314
▁facile	-6315
▁appréci	-6316
▁voyages	-6317
▁Sciences	-6318
▁distance	-6319
▁objectif	-6320
▁réformes	-6321
Téléchargé	-6322
équipement	-6323
▁2007-11-2	-6324
▁2008-04-0	-6325
▁croisière	-6326
▁fractions	-6327
▁commission	-6328
▁détaillant	-6329
▁infraction	-6330
▁mexicaines	-6331
▁présentent	-6332
▁particulière	-6333
▁régulièrement	-6334
/2	-6335
84	-6336
UN	-6337
ESB	-6338
gén	-6339
yle	-6340
▁77	-6341
bour	-6342
rict	-6343
ulté	-6344
▁Mme	-6345
▁iss	-6346
Notes	-6347
agnos	-6348
mosph	-6349
▁Deux	-6350
▁note	-6351
▁saum	-6352
▁veil	-6353
▁Simon	-6354
▁Utilis	-6355
▁défici	-6356
abattage	-6357
▁grasses	-6358
▁mélange	-6359
▁récente	-6360
▁Téléfilm	-6361
▁machines	-6362
▁minéraux	-6363
▁prennent	-6364
▁réussite	-6365
▁solution	-6366
▁voyeurisme	-6367
▁secondaires	-6368
1.	-6369
▁FR	-6370
▁Go	-6371
▁mâ	-6372
oine	-6373
ound	-6374
pées	-6375
▁Jer	-6376
▁Lac	-6377
▁cos	-6378
▁del	-6379
▁jau	-6380
▁mot	-6381
liers	-6382
monie	-6383
▁2010	-6384
▁Aper	-6385
▁Thom	-6386
▁alli	-6387
▁huit	-6388
▁mout	-6389
▁neig	-6390
▁vidé	-6391
argent	-6392
prises	-6393
▁huile	-6394
▁minis	-6395
▁fermes	-6396
▁visent	-6397
▁Carling	-6398
▁chômage	-6399
▁Mercosur	-6400
▁parvenir	-6401
▁spatiale	-6402
exactitude	-6403
▁Quotidien	-6404
▁crustacés	-6405
93	-6406
97	-6407
QU	-6408
hi	-6409
lo	-6410
-18	-6411
way	-6412
adap	-6413
airs	-6414
bert	-6415
itée	-6416
oton	-6417
▁1,2	-6418
▁700	-6419
▁Dom	-6420
▁glu	-6421
ropri	-6422
▁"(1)	-6423
▁club	-6424
▁grig	-6425
▁quoi	-6426
▁vert	-6427
illiam	-6428
▁[...]	-6429
▁aient	-6430
▁force	-6431
antaine	-6432
▁faites	-6433
▁fiduci	-6434
▁mètres	-6435
▁situés	-6436
▁Aperçus	-6437
▁complex	-6438
ambassade	-6439
orisation	-6440
▁diminuer	-6441
▁pensions	-6442
▁pourquoi	-6443
▁touchant	-6444
▁Politique	-6445
▁encourage	-6446
▁essentiel	-6447
▁favorable	-6448
▁lancement	-6449
▁largement	-6450
▁Fédération	-6451
▁certificats	-6452
▁observations	-6453
(2)	-6454
cre	-6455
ney	-6456
évé	-6457
▁DÉ	-6458
▁519	-6459
▁Dem	-6460
▁arr	-6461
rants	-6462
tares	-6463
émoig	-6464
▁Fond	-6465
▁759-7	-6466
▁doute	-6467
▁dénom	-6468
▁laiss	-6469
▁table	-6470
ufactur	-6471
▁Avenue	-6472
▁Territ	-6473
▁atteig	-6474
▁autour	-6475
▁format	-6476
▁cuisson	-6477
▁devront	-6478
▁science	-6479
activités	-6480
▁Festival	-6481
▁Veuillez	-6482
▁exclusive	-6483
▁primaires	-6484
▁spéciales	-6485
▁contribuer	-6486
▁comparaison	-6487
▁confiseries	-6488
▁investisseurs	-6489
94	-6490
IF	-6491
cf	-6492
ns	-6493
CDP	-6494
MER	-6495
ros	-6496
▁"2	-6497
▁"3	-6498
▁SH	-6499
ouse	-6500
œufs	-6501
▁Rec	-6502
▁cau	-6503
arriv	-6504
chets	-6505
cteur	-6506
gents	-6507
▁Avis	-6508
▁refl	-6509
▁vété	-6510
Connor	-6511
cédent	-6512
▁2006.	-6513
▁chuté	-6514
▁désir	-6515
inaires	-6516
▁Victor	-6517
▁dispar	-6518
▁pointe	-6519
▁témoig	-6520
tination	-6521
▁dispose	-6522
▁emplois	-6523
▁faillite	-6524
▁substitu	-6525
▁Plusieurs	-6526
▁commodité	-6527
▁constante	-6528
▁étudiants	-6529
▁initiative	-6530
▁souhaitent	-6531
ANG	-6532
Col	-6533
dec	-6534
dia	-6535
val	-6536
isée	-6537
rité	-6538
▁goû	-6539
oline	-6540
▁ALER	-6541
excell	-6542
▁CANAD	-6543
▁Faire	-6544
▁Group	-6545
▁intit	-6546
▁ronde	-6547
accueil	-6548
ectares	-6549
▁essais	-6550
▁tartin	-6551
▁Aliment	-6552
▁Barbade	-6553
▁Pakistan	-6554
▁pénétrer	-6555
▁2006-12-2	-6556
▁Recherche	-6557
▁exposition	-6558
▁législative	-6559
▁spécifiques	-6560
52	-6561
ii	-6562
ju	-6563
uv	-6564
-01	-6565
gen	-6566
ona	-6567
,000	-6568
aria	-6569
▁gal	-6570
▁gel	-6571
▁lun	-6572
opéra	-6573
rabie	-6574
▁Expo	-6575
▁Fort	-6576
alcool	-6577
▁1998,	-6578
▁Agent	-6579
▁Grand	-6580
▁Inter	-6581
▁lucra	-6582
▁trouv	-6583
▁écrit	-6584
mission	-6585
ulation	-6586
▁Retour	-6587
▁autant	-6588
▁brésil	-6589
▁délais	-6590
▁expéri	-6591
▁puisqu	-6592
▁régler	-6593
▁simple	-6594
▁étapes	-6595
objectif	-6596
▁actuels	-6597
▁choisir	-6598
▁intelle	-6599
▁options	-6600
▁sectori	-6601
▁citoyens	-6602
▁préfèrent	-6603
▁considérés	-6604
▁simplement	-6605
▁industrielle	-6606
auv	-6607
▁Ob	-6608
▁SI	-6609
▁rô	-6610
cune	-6611
endu	-6612
èvre	-6613
▁(1,	-6614
▁cra	-6615
endra	-6616
grais	-6617
▁Mary	-6618
▁capt	-6619
▁vali	-6620
▁(202)	-6621
▁envoy	-6622
install	-6623
▁ALERTE	-6624
▁pâtiss	-6625
▁rigour	-6626
▁stable	-6627
▁élèves	-6628
acheteur	-6629
▁fiscale	-6630
▁portent	-6631
permarché	-6632
importants	-6633
obligation	-6634
▁2006-01-2	-6635
▁consommés	-6636
▁israélien	-6637
▁versement	-6638
▁Technology	-6639
▁représenté	-6640
▁contiennent	-6641
▁quarantaine	-6642
apprentissage	-6643
▁propriétaire	-6644
FA	-6645
IO	-6646
▁57	-6647
▁là	-6648
tera	-6649
▁ouv	-6650
▁pou	-6651
▁via	-6652
TIONS	-6653
ordon	-6654
établ	-6655
▁Bien	-6656
▁Conc	-6657
▁disc	-6658
▁réta	-6659
ailles	-6660
cience	-6661
oudite	-6662
▁reflé	-6663
arrivée	-6664
aturité	-6665
oursins	-6666
étaires	-6667
▁Strahl	-6668
▁chemin	-6669
▁circul	-6670
▁rouges	-6671
▁sèches	-6672
▁Système	-6673
▁visiter	-6674
▁conforme	-6675
▁2008-03-0	-6676
▁rédaction	-6677
▁végétales	-6678
▁augmentent	-6679
▁chargement	-6680
▁intéressant	-6681
▁intéressées	-6682
▁préférences	-6683
▁organisation	-6684
▁infrastructures	-6685
ik	-6686
ît	-6687
tan	-6688
▁47	-6689
▁51	-6690
▁74	-6691
▁bâ	-6692
▁me	-6693
erme	-6694
otte	-6695
umer	-6696
▁Net	-6697
▁clé	-6698
▁cre	-6699
▁sup	-6700
actes	-6701
foods	-6702
▁Lors	-6703
▁Sous	-6704
▁anté	-6705
élimin	-6706
▁ASSOCI	-6707
▁Fisher	-6708
▁Marché	-6709
▁notion	-6710
▁suivre	-6711
▁William	-6712
▁extrême	-6713
▁octroie	-6714
▁pouvait	-6715
▁voisins	-6716
augmenter	-6717
▁desserts	-6718
▁prélimin	-6719
▁actuelles	-6720
▁rencontre	-6721
▁utilisant	-6722
▁Événements	-6723
CO	-6724
-00	-6725
ild	-6726
irs	-6727
mid	-6728
ots	-6729
ses	-6730
▁64	-6731
-55)	-6732
ICOM	-6733
INCI	-6734
verg	-6735
érap	-6736
▁1."	-6737
▁Ren	-6738
▁opp	-6739
agers	-6740
asser	-6741
iches	-6742
tegis	-6743
zerne	-6744
èdent	-6745
▁LCDP	-6746
▁aéro	-6747
▁empê	-6748
▁foin	-6749
▁noir	-6750
▁plac	-6751
▁Bever	-6752
▁Elles	-6753
▁image	-6754
▁peine	-6755
▁2007."	-6756
▁départ	-6757
▁député	-6758
▁remise	-6759
▁anciens	-6760
▁démocra	-6761
▁liquide	-6762
▁totalis	-6763
▁vétérin	-6764
appliquer	-6765
▁NATIONAL	-6766
▁convient	-6767
▁déjeuner	-6768
▁explique	-6769
▁interdit	-6770
▁2006-01-1	-6771
▁promenade	-6772
▁spécifique	-6773
▁infractions	-6774
Bre	-6775
TER	-6776
oya	-6777
▁96	-6778
▁tm	-6779
inée	-6780
otka	-6781
ries	-6782
ukon	-6783
▁Far	-6784
▁Sch	-6785
▁1995	-6786
▁bleu	-6787
▁vive	-6788
alogue	-6789
tables	-6790
▁Force	-6791
▁copie	-6792
▁défic	-6793
▁quali	-6794
▁visés	-6795
itation	-6796
▁Nootka	-6797
▁séchés	-6798
▁courant	-6799
▁déposer	-6800
▁marquée	-6801
▁prolong	-6802
▁équival	-6803
▁capitaux	-6804
▁garantir	-6805
▁inscrits	-6806
▁littoral	-6807
▁officiel	-6808
▁criminels	-6809
▁paiements	-6810
▁travaille	-6811
intégration	-6812
orientation	-6813
▁expédition	-6814
enseignement	-6815
▁Canadiennes	-6816
▁application	-6817
▁touristique	-6818
▁intellectuelle	-6819
91	-6820
AIN	-6821
car	-6822
rug	-6823
coun	-6824
ingt	-6825
▁(1)	-6826
▁All	-6827
▁Aus	-6828
▁coc	-6829
TIQUE	-6830
fonds	-6831
icago	-6832
teuse	-6833
ultur	-6834
▁Maur	-6835
▁Orig	-6836
▁Paul	-6837
▁acqu	-6838
▁avez	-6839
▁célè	-6840
▁dipl	-6841
▁fera	-6842
▁gard	-6843
▁manu	-6844
accise	-6845
▁Chuck	-6846
▁Forum	-6847
▁varie	-6848
andards	-6849
lements	-6850
▁Miguel	-6851
Internet	-6852
▁(52-55)	-6853
▁utilise	-6854
prétation	-6855
▁effectué	-6856
▁2008-06-1	-6857
▁effectuer	-6858
▁fabriqués	-6859
▁multiples	-6860
▁utilisent	-6861
exploration	-6862
▁allocution	-6863
▁considérer	-6864
▁meilleures	-6865
▁manutention	-6866
▁température	-6867
▁britanniques	-6868
▁hypermarchés	-6869
▁gestionnaires	-6870
OP	-6871
-13	-6872
00)	-6873
ree	-6874
▁NE	-6875
▁em	-6876
Food	-6877
apan	-6878
glet	-6879
isés	-6880
mark	-6881
quez	-6882
rons	-6883
▁Her	-6884
chées	-6885
gypte	-6886
ousse	-6887
Ottawa	-6888
ourner	-6889
rlande	-6890
ximité	-6891
▁(204)	-6892
▁avanc	-6893
▁soupe	-6894
▁Robert	-6895
▁andine	-6896
gleterre	-6897
▁Organis	-6898
▁journée	-6899
▁mettent	-6900
▁modifié	-6901
▁Economic	-6902
▁autorisé	-6903
▁mélanges	-6904
▁résultat	-6905
▁2008-04-1	-6906
▁collation	-6907
▁conformes	-6908
inscription	-6909
▁Atlantique	-6910
▁gouverneur	-6911
▁oléagineux	-6912
▁conférences	-6913
▁répercussions	-6914
ij	-6915
-14	-6916
ASE	-6917
GIE	-6918
cel	-6919
dig	-6920
mée	-6921
▁$"	-6922
atte	-6923
exig	-6924
niti	-6925
tise	-6926
▁ANN	-6927
▁Mél	-6928
▁dét	-6929
annon	-6930
mises	-6931
olive	-6932
▁agro	-6933
▁baie	-6934
▁bass	-6935
▁ciel	-6936
▁sain	-6937
▁sert	-6938
hésion	-6939
études	-6940
▁accus	-6941
▁devra	-6942
▁livre	-6943
▁rendu	-6944
▁signé	-6945
▁étape	-6946
affaire	-6947
▁commis	-6948
▁entrée	-6949
▁interd	-6950
▁polici	-6951
▁provis	-6952
Nouvelle	-6953
cophonie	-6954
▁2008-07	-6955
▁hommage	-6956
▁introdu	-6957
influence	-6958
▁circonst	-6959
▁conjoint	-6960
▁gazeuses	-6961
▁mondiaux	-6962
organismes	-6963
▁allemande	-6964
▁proximité	-6965
▁Université	-6966
▁automobile	-6967
▁directives	-6968
▁produisent	-6969
▁utilisation	-6970
▁dédouanement	-6971
▁entrepreneurs	-6972
▁exploitations	-6973
▁discriminatoire	-6974
▁responsabilités	-6975
ft	-6976
ha	-6977
ida	-6978
▁54	-6979
3-30	-6980
fait	-6981
inté	-6982
rupo	-6983
▁Bos	-6984
▁Jim	-6985
▁enj	-6986
ondur	-6987
élarg	-6988
▁Nest	-6989
ctique	-6990
tentes	-6991
énégal	-6992
▁décid	-6993
▁kilom	-6994
▁mener	-6995
▁relig	-6996
▁saine	-6997
lusions	-6998
pagnols	-6999
▁police	-7000
ailleurs	-7001
ertaines	-7002
▁composé	-7003
▁diagnos	-7004
▁luzerne	-7005
▁parents	-7006
▁perform	-7007
▁étroite	-7008
▁Archives	-7009
▁fromages	-7010
▁moyennes	-7011
▁recevoir	-7012
▁regroupe	-7013
▁éventail	-7014
ordonnance	-7015
▁2007-04-0	-7016
▁médiation	-7017
▁agriculture	-7018
▁combattants	-7019
▁considèrent	-7020
▁proposition	-7021
PP	-7022
TU	-7023
VA	-7024
MAR	-7025
cia	-7026
env	-7027
ora	-7028
▁Li	-7029
▁tu	-7030
atie	-7031
ores	-7032
▁Lib	-7033
▁Méx	-7034
▁cop	-7035
Initi	-7036
menté	-7037
regon	-7038
▁FOOD	-7039
dulcor	-7040
issait	-7041
quante	-7042
▁Bibli	-7043
▁Texte	-7044
▁Yukon	-7045
▁bande	-7046
▁mouve	-7047
oristes	-7048
▁Numéro	-7049
▁adress	-7050
▁inclus	-7051
▁rayons	-7052
▁thérap	-7053
autorité	-7054
ministre	-7055
▁Légumes	-7056
▁Travail	-7057
▁caution	-7058
▁soldats	-7059
▁Victoria	-7060
▁viennent	-7061
▁2006-06-0	-7062
▁2006-08-2	-7063
▁Indonésie	-7064
▁Marketing	-7065
▁conservés	-7066
▁incidence	-7067
▁modalités	-7068
▁trimestre	-7069
acquisition	-7070
▁inférieure	-7071
▁estimations	-7072
-08	-7073
OGM	-7074
hor	-7075
opa	-7076
▁GM	-7077
ITÉS	-7078
noti	-7079
▁amb	-7080
1-200	-7081
Grâce	-7082
aders	-7083
attle	-7084
▁Pres	-7085
▁enqu	-7086
▁hach	-7087
Pierre	-7088
active	-7089
aspina	-7090
truire	-7091
▁(800)	-7092
▁Comme	-7093
▁codes	-7094
▁taxes	-7095
absence	-7096
▁(2005)	-7097
▁Madrid	-7098
▁México	-7099
▁Provin	-7100
▁contam	-7101
▁forces	-7102
▁formes	-7103
▁immédi	-7104
▁éviter	-7105
▁Comment	-7106
▁bactéri	-7107
▁chacune	-7108
▁indirec	-7109
▁lettres	-7110
▁précise	-7111
▁évaluer	-7112
tissement	-7113
▁Antilles	-7114
▁récentes	-7115
▁sections	-7116
▁sommaire	-7117
abrication	-7118
▁2008-01-1	-7119
▁Président	-7120
▁asiatiques	-7121
▁conception	-7122
▁couverture	-7123
▁description	-7124
▁laboratoire	-7125
▁raisonnables	-7126
▁échantillons	-7127
Pr	-7128
UL	-7129
19)	-7130
8-6	-7131
ALE	-7132
Con	-7133
ett	-7134
oma	-7135
oms	-7136
▁Lu	-7137
▁Mo	-7138
▁Pâ	-7139
▁RE	-7140
.100	-7141
iers	-7142
line	-7143
rera	-7144
▁mob	-7145
▁83.3	-7146
▁adul	-7147
▁gâte	-7148
droits	-7149
entiel	-7150
▁Exhib	-7151
▁Suède	-7152
▁Tunis	-7153
▁coton	-7154
▁rural	-7155
▁écoss	-7156
pportun	-7157
▁engage	-7158
▁recour	-7159
▁regard	-7160
▁Adresse	-7161
▁Balance	-7162
▁adopter	-7163
existence	-7164
▁commence	-7165
▁comptant	-7166
▁portions	-7167
▁professe	-7168
▁2008-06-0	-7169
▁allemands	-7170
▁générales	-7171
▁mécanismes	-7172
▁répondants	-7173
▁supérieurs	-7174
gouvernement	-7175
ky	-7176
na	-7177
Min	-7178
exc	-7179
ham	-7180
pôt	-7181
tez	-7182
▁$)	-7183
▁92	-7184
éant	-7185
▁Vis	-7186
▁aqu	-7187
▁hon	-7188
▁ray	-7189
▁tit	-7190
igure	-7191
usses	-7192
▁crée	-7193
▁sauc	-7194
Alaska	-7195
alifax	-7196
inseng	-7197
notines	-7198
vergure	-7199
▁Soleil	-7200
▁hareng	-7201
▁presse	-7202
▁présid	-7203
▁America	-7204
▁Chicago	-7205
Nouvelles	-7206
angladesh	-7207
▁Nouveaux	-7208
▁additifs	-7209
▁renouvel	-7210
▁Espagnols	-7211
▁Fondation	-7212
▁cherchent	-7213
▁populaire	-7214
▁Évaluation	-7215
▁Nominations	-7216
▁extrêmement	-7217
▁provinciale	-7218
investigation	-7219
▁géographique	-7220
Administration	-7221
▁représentation	-7222
/3	-7223
8,	-7224
9.	-7225
go	-7226
edc	-7227
iré	-7228
opp	-7229
rég	-7230
▁86	-7231
encé	-7232
esté	-7233
oeil	-7234
olfe	-7235
ènes	-7236
▁900	-7237
▁Cad	-7238
▁INR	-7239
▁dan	-7240
▁tri	-7241
cents	-7242
▁cibl	-7243
▁code	-7244
▁fumé	-7245
▁mauv	-7246
▁équi	-7247
armaci	-7248
oindre	-7249
tional	-7250
▁Carte	-7251
▁fondé	-7252
cussion	-7253
fection	-7254
urgence	-7255
▁cadres	-7256
▁salons	-7257
▁saveur	-7258
migrants	-7259
▁Viandes	-7260
▁décider	-7261
▁détient	-7262
▁peuples	-7263
ociations	-7264
▁capitale	-7265
▁chimique	-7266
▁conclure	-7267
▁attention	-7268
▁chiffrées	-7269
▁fiabilité	-7270
▁concession	-7271
▁découverte	-7272
▁expérience	-7273
▁prestation	-7274
▁recommandé	-7275
▁terroristes	-7276
▁Francophonie	-7277
▁susceptibles	-7278
▁linguistiques	-7279
▁Réglementation	-7280
At	-7281
ado	-7282
asi	-7283
▁AG	-7284
▁ON	-7285
èges	-7286
▁(24	-7287
▁10.	-7288
▁red	-7289
arach	-7290
astes	-7291
hiver	-7292
▁Comp	-7293
▁Lang	-7294
▁dens	-7295
▁pont	-7296
▁vice	-7297
alisme	-7298
auteur	-7299
endent	-7300
ilibre	-7301
téraux	-7302
▁(34-9	-7303
▁biais	-7304
▁impri	-7305
atrices	-7306
▁Gordon	-7307
▁Sector	-7308
▁active	-7309
▁devenu	-7310
▁prévue	-7311
Colombie	-7312
▁CARICOM	-7313
▁Michael	-7314
▁délégué	-7315
▁experts	-7316
▁exporte	-7317
▁pension	-7318
▁servent	-7319
attention	-7320
itiatives	-7321
▁courante	-7322
▁dynamique	-7323
▁décortiqu	-7324
▁individus	-7325
▁pêcheries	-7326
▁soumettre	-7327
▁organiques	-7328
inauguration	-7329
▁ASSOCIATION	-7330
▁ordonnances	-7331
2.	-7332
DN	-7333
Mme	-7334
arr	-7335
réh	-7336
▁87	-7337
▁tâ	-7338
iend	-7339
phal	-7340
▁Bay	-7341
▁pur	-7342
ajout	-7343
faits	-7344
hydra	-7345
ormes	-7346
ropol	-7347
uffis	-7348
ythme	-7349
▁Miss	-7350
▁Part	-7351
▁axée	-7352
▁banc	-7353
▁célé	-7354
▁ferm	-7355
▁voit	-7356
stroph	-7357
▁613-9	-7358
▁attra	-7359
▁deven	-7360
▁grill	-7361
▁hydro	-7362
▁perce	-7363
▁rende	-7364
▁train	-7365
▁States	-7366
▁papier	-7367
▁poivre	-7368
▁pourra	-7369
▁prospé	-7370
▁struct	-7371
▁évalué	-7372
identité	-7373
▁actions	-7374
▁affiché	-7375
▁bateaux	-7376
▁limites	-7377
▁moderne	-7378
▁2001-200	-7379
▁excellente	-7380
▁similaires	-7381
▁fonctionnaires	-7382
IM	-7383
lie	-7384
▁68	-7385
▁We	-7386
2-2)	-7387
lish	-7388
usda	-7389
▁3,5	-7390
▁ALI	-7391
▁SEC	-7392
▁mig	-7393
CTION	-7394
anche	-7395
dient	-7396
opath	-7397
▁Drug	-7398
▁Info	-7399
▁reti	-7400
▁émis	-7401
Lorsqu	-7402
illage	-7403
▁(716)	-7404
▁Georg	-7405
▁Labor	-7406
▁Trois	-7407
▁adéqu	-7408
▁illus	-7409
▁élect	-7410
Lorsque	-7411
Nouveau	-7412
demnité	-7413
▁Fruits	-7414
▁Panama	-7415
▁action	-7416
▁fiscal	-7417
▁grosse	-7418
▁située	-7419
▁sommet	-7420
Certains	-7421
vabilité	-7422
▁Article	-7423
▁délivré	-7424
▁globale	-7425
▁solides	-7426
▁texture	-7427
▁édition	-7428
▁Ministre	-7429
▁auxquels	-7430
▁carrière	-7431
▁débarque	-7432
▁examiner	-7433
▁occupent	-7434
▁saoudite	-7435
▁Relations	-7436
▁accueille	-7437
▁reconnaît	-7438
Euromonitor	-7439
▁Programmes	-7440
▁dirigeants	-7441
▁militaires	-7442
▁possession	-7443
▁champignons	-7444
▁climatiques	-7445
▁représentait	-7446
/0	-7447
dy	-7448
ALI	-7449
Sud	-7450
bit	-7451
iée	-7452
▁Cl	-7453
▁He	-7454
Iran	-7455
lexe	-7456
oque	-7457
oriz	-7458
oses	-7459
tech	-7460
éria	-7461
▁125	-7462
▁Bon	-7463
▁Chi	-7464
▁Imp	-7465
▁adj	-7466
▁her	-7467
▁vul	-7468
giène	-7469
nesol	-7470
▁City	-7471
▁Trad	-7472
▁quit	-7473
Import	-7474
apport	-7475
▁1-800	-7476
▁capac	-7477
▁clubs	-7478
▁corre	-7479
▁dépit	-7480
▁dériv	-7481
▁médec	-7482
▁stric	-7483
▁Région	-7484
▁commém	-7485
▁explic	-7486
▁rythme	-7487
Manitoba	-7488
employés	-7489
▁déficit	-7490
▁mesurer	-7491
oritaires	-7492
▁Couronne	-7493
▁maintien	-7494
▁positive	-7495
▁sauvages	-7496
▁transgén	-7497
▁concentré	-7498
▁conformer	-7499
▁participe	-7500
▁reçoivent	-7501
▁Exhibition	-7502
▁discussion	-7503
▁renseigner	-7504
▁résolution	-7505
▁semblables	-7506
▁situations	-7507
▁Gouverneure	-7508
▁institution	-7509
▁multination	-7510
▁conséquences	-7511
▁réalisations	-7512
▁reconnaissance	-7513
▁traditionnelle	-7514
7)	-7515
FC	-7516
▁x	-7517
▁×	-7518
rez	-7519
ume	-7520
▁CA	-7521
Serv	-7522
ahar	-7523
cipé	-7524
wich	-7525
▁Ban	-7526
▁Mag	-7527
▁Maj	-7528
▁fur	-7529
▁écl	-7530
oeufs	-7531
poque	-7532
raire	-7533
▁cess	-7534
▁malt	-7535
trants	-7536
▁(305)	-7537
▁Fiche	-7538
▁physi	-7539
▁seuls	-7540
▁Étude	-7541
issaire	-7542
▁actifs	-7543
▁passée	-7544
tabilité	-7545
▁Origine	-7546
▁relatif	-7547
esticides	-7548
olescents	-7549
▁Boissons	-7550
▁Caroline	-7551
▁Problème	-7552
▁indiquer	-7553
▁priorité	-7554
▁procéder	-7555
▁refléter	-7556
▁sensible	-7557
▁stimuler	-7558
▁transpar	-7559
▁découlant	-7560
▁développé	-7561
▁influence	-7562
▁véhicules	-7563
▁Statistics	-7564
▁demandeurs	-7565
▁poursuivre	-7566
▁rencontrer	-7567
▁enregistrés	-7568
▁néerlandais	-7569
▁raisonnable	-7570
▁traditionnelles	-7571
7,	-7572
bi	-7573
to	-7574
ars	-7575
pit	-7576
▁58	-7577
▁Je	-7578
▁mg	-7579
oise	-7580
▁1,4	-7581
▁120	-7582
▁EDC	-7583
▁Gar	-7584
▁san	-7585
ALLER	-7586
octro	-7587
▁Ques	-7588
▁noms	-7589
▁peau	-7590
▁Black	-7591
▁fourr	-7592
▁multi	-7593
▁phase	-7594
▁pollu	-7595
▁pouss	-7596
▁riche	-7597
Univers	-7598
▁antéri	-7599
▁arrive	-7600
▁objets	-7601
▁Équipe	-7602
ALLERGIE	-7603
▁comport	-7604
▁contreb	-7605
▁directs	-7606
▁sondage	-7607
▁victime	-7608
▁endroits	-7609
▁extraits	-7610
▁incluant	-7611
▁moutarde	-7612
▁possibles	-7613
▁réception	-7614
▁tournesol	-7615
Afghanistan	-7616
▁substituts	-7617
▁législatifs	-7618
▁mentionnons	-7619
▁suffisamment	-7620
▁circonstances	-7621
▁supplémentaire	-7622
6,	-7623
gn	-7624
alo	-7625
chi	-7626
col	-7627
▁00	-7628
▁Rd	-7629
iées	-7630
ware	-7631
▁Cré	-7632
▁Déb	-7633
▁Ken	-7634
essai	-7635
extra	-7636
ignes	-7637
illée	-7638
océan	-7639
▁Page	-7640
▁ment	-7641
▁that	-7642
▁Atlas	-7643
▁Green	-7644
▁virtu	-7645
acteurs	-7646
▁appelé	-7647
▁fluctu	-7648
▁pertes	-7649
▁révélé	-7650
ignation	-7651
▁Tunisie	-7652
▁balance	-7653
▁convain	-7654
▁coopéra	-7655
▁positif	-7656
▁terrain	-7657
▁Labrador	-7658
▁canneber	-7659
▁clinique	-7660
▁privilég	-7661
▁présents	-7662
▁rechange	-7663
▁renforce	-7664
▁2007-11-1	-7665
▁raffinées	-7666
alimentaire	-7667
▁correction	-7668
▁évaluation	-7669
observatoire	-7670
▁prestations	-7671
▁supermarché	-7672
▁établissement	-7673
21	-7674
BC	-7675
RA	-7676
ty	-7677
yo	-7678
The	-7679
str	-7680
▁Ko	-7681
▁NY	-7682
▁by	-7683
▁om	-7684
▁wh	-7685
ouge	-7686
till	-7687
énat	-7688
▁11.	-7689
▁CCB	-7690
auche	-7691
lever	-7692
mblée	-7693
ondie	-7694
ottes	-7695
▁joue	-7696
▁volu	-7697
▁with	-7698
▁œufs	-7699
difice	-7700
liance	-7701
omment	-7702
ysique	-7703
▁Liste	-7704
▁South	-7705
▁baiss	-7706
▁essor	-7707
▁graph	-7708
diments	-7709
pertise	-7710
▁entend	-7711
▁pénale	-7712
▁stabil	-7713
▁MEXIQUE	-7714
▁Medical	-7715
▁Society	-7716
▁commune	-7717
▁fondées	-7718
▁ginseng	-7719
▁prévoir	-7720
▁réalisé	-7721
▁suivent	-7722
▁veiller	-7723
MENTAIRES	-7724
▁2002-200	-7725
▁Canadien	-7726
▁collecte	-7727
▁cuisinés	-7728
▁domicile	-7729
▁ethnique	-7730
▁négative	-7731
▁profonde	-7732
▁thérapeu	-7733
▁continent	-7734
▁pouvaient	-7735
blissements	-7736
▁bilatéraux	-7737
▁durabilité	-7738
▁grandement	-7739
▁consulaires	-7740
▁#	-7741
erg	-7742
ics	-7743
aves	-7744
avie	-7745
west	-7746
érée	-7747
▁0,5	-7748
▁MER	-7749
▁Nos	-7750
▁Sun	-7751
▁lou	-7752
ANGER	-7753
oyage	-7754
▁Somm	-7755
▁frau	-7756
▁fête	-7757
▁traç	-7758
▁âgés	-7759
octroi	-7760
quième	-7761
▁(514)	-7762
▁Grupo	-7763
▁Pâtes	-7764
▁immob	-7765
atement	-7766
ocation	-7767
tration	-7768
▁German	-7769
▁acquis	-7770
cèlement	-7771
paravant	-7772
▁Compagn	-7773
▁Secteur	-7774
▁demandé	-7775
▁devenue	-7776
▁pénurie	-7777
▁volumes	-7778
▁nouilles	-7779
▁obstacle	-7780
▁renferme	-7781
▁audiences	-7782
▁considéra	-7783
▁prochaine	-7784
▁Bangladesh	-7785
▁Industrial	-7786
▁astronomes	-7787
▁conseiller	-7788
▁consomment	-7789
▁kilomètres	-7790
▁logistique	-7791
▁pertinents	-7792
▁potentiels	-7793
▁régionales	-7794
▁association	-7795
▁recherchent	-7796
▁représenter	-7797
▁répartition	-7798
▁explorateurs	-7799
▁productivité	-7800
▁terminologie	-7801
▁Consultations	-7802
▁professionnel	-7803
nl	-7804
▁€	-7805
-15	-7806
edu	-7807
ery	-7808
key	-7809
obe	-7810
orf	-7811
viv	-7812
▁78	-7813
▁	-7814
e	-7815
s	-7816
a	-7817
n	-7818
i	-7819
t	-7820
r	-7821
o	-7822
u	-7823
l	-7824
d	-7825
c	-7826
p	-7827
m	-7828
é	-7829
g	-7830
v	-7831
f	-7832
0	-7833
,	-7834
.	-7835
"	-7836
b	-7837
h	-7838
q	-7839
C	-7840
-	-7841
'	-7842
2	-7843
x	-7844
1	-7845
L	-7846
à	-7847
A	-7848
’	-7849
S	-7850
è	-7851
y	-7852
:	-7853
E	-7854
6	-7855
P	-7856
3	-7857
I	-7858
5	-7859
T	-7860
7	-7861
)	-7862
(	-7863
D	-7864
4	-7865
9	-7866
M	-7867
w	-7868
N	-7869
8	-7870
R	-7871
j	-7872
O	-7873
U	-7874
B	-7875
]	-7876
[	-7877
F	-7878
/	-7879
ê	-7880
G	-7881
k	-7882
•	-7883
%	-7884
_	-7885
É	-7886
z	-7887
H	-7888
V	-7889
J	-7890
W	-7891
«	-7892
;	-7893
»	-7894
ô	-7895
ç	-7896
Q	-7897
î	-7898
$	-7899
K	-7900
û	-7901
â	-7902
@	-7903
–	-7904
ï	-7905
Y	-7906
X	-7907
*	-7908
?	-7909
À	-7910
ù	-7911
&	-7912
œ	-7913
Z	-7914
ë	-7915
|	-7916
!	-7917
=	-7918
◦	-7919
Î	-7920
>	-7921
°	-7922
+	-7923
ó	-7924
′	-7925
í	-7926
È	-7927
á	-7928
—	-7929
#	-7930
ü	-7931
ñ	-7932
­	-7933
	-7934
€	-7935
©	-7936
×	-7937
▪	-7938
<	-7939
‐	-7940
¥	-7941
Ç	-7942
Ê	-7943
Ø	-7944
ú	-7945
Ã	-7946
́	-7947
►	-7948
ã	-7949
−	-7950
ä	-7951
ö	-7952
ø	-7953
Û	-7954
Ô	-7955
⇒	-7956
·	-7957
†	-7958
~	-7959
⁄	-7960
®	-7961
Â	-7962
‘	-7963
□	-7964
Ï	-7965
Á	-7966
£	-7967
ß	-7968
Œ	-7969
`	-7970
Ó	-7971
Ö	-7972
õ	-7973
Í	-7974
̈	-7975
\	-7976
Ñ	-7977
√	-7978
æ	-7979
μ	-7980
―	-7981
	-7982
	-7983
Ë	-7984
{	-7985
}	-7986
¢	-7987
§	-7988
¶	-7989
Å	-7990
Ü	-7991
ì	-7992
ò	-7993
γ	-7994
‣	-7995
